<?xml version="1.0"?>
<opencv_storage>
<stage7>
  <maxWeakCount>28</maxWeakCount>
  <stageThreshold>-1.9894621372222900e+00</stageThreshold>
  <weakClassifiers>
    <_>
      <internalNodes>
        0 -1 1479 -33562629 -25243523 -537535043 -1912612353 -69228097
        -1929660421 -537919489 -1929379841</internalNodes>
      <leafValues>
        -8.2488101720809937e-01 -2.9223057627677917e-01</leafValues></_>
    <_>
      <internalNodes>
        0 -1 416 1374789802 -67109393 900046813 936374223 -1145118737
        -4203525 2146393087 2145378303</internalNodes>
      <leafValues>
        -6.3113367557525635e-01 8.8478453457355499e-02</leafValues></_>
    <_>
      <internalNodes>
        0 -1 197 -50331685 -270632449 -757558019 -3089921 -544326691
        -2030814543 -13469057 -9207945</internalNodes>
      <leafValues>
        -3.2739683985710144e-01 3.2521882653236389e-01</leafValues></_>
    <_>
      <internalNodes>
        0 -1 1582 -134218976 -538185274 -1534744928 -1517566047
        -806367740 -244844950 -352911668 -235938818</internalNodes>
      <leafValues>
        -3.0388832092285156e-01 3.0401578545570374e-01</leafValues></_>
    <_>
      <internalNodes>
        0 -1 1060 2037772227 -1113260044 -1246022 -13828100 1609879508
        2132074492 2146197354 933723983</internalNodes>
      <leafValues>
        -2.5855901837348938e-01 3.4340471029281616e-01</leafValues></_>
    <_>
      <internalNodes>
        0 -1 820 1547357951 -1728907300 -161575176 -204804 1893752572
        972991547 -85790916 -16991248</internalNodes>
      <leafValues>
        -4.0452986955642700e-01 2.1424284577369690e-01</leafValues></_>
    <_>
      <internalNodes>
        0 -1 1218 -173 -8519815 -655784 -1678770460 2113271580
        1819148276 1879039978 2137513943</internalNodes>
      <leafValues>
        -2.4638958275318146e-01 3.5562679171562195e-01</leafValues></_>
    <_>
      <internalNodes>
        0 -1 535 2046427071 -539713539 -808142352 -537460816 1522815380
        -637732404 -1074635400 1591697244</internalNodes>
      <leafValues>
        -3.4479141235351562e-01 2.5890883803367615e-01</leafValues></_>
    <_>
      <internalNodes>
        0 -1 295 441360127 1031468794 1650084044 -436341808 1168918970
        1595766910 2063423999 1694465879</internalNodes>
      <leafValues>
        -3.0652555823326111e-01 2.7012228965759277e-01</leafValues></_>
    <_>
      <internalNodes>
        0 -1 1587 -1212338880 1574351808 -1459465324 -1076055052
        1916685052 -775114263 -35983624 82882556</internalNodes>
      <leafValues>
        -6.7012053728103638e-01 1.2137170135974884e-01</leafValues></_>
    <_>
      <internalNodes>
        0 -1 1047 1347790779 997899244 1339356740 -1074200644 2147228636
        2113769722 -285312194 666861430</internalNodes>
      <leafValues>
        -3.0383121967315674e-01 2.5229626893997192e-01</leafValues></_>
    <_>
      <internalNodes>
        0 -1 689 2142764655 -306774084 -17109088 1069412132 1584672250
        534315004 -864390 1437589471</internalNodes>
      <leafValues>
        -2.7799624204635620e-01 2.9701063036918640e-01</leafValues></_>
    <_>
      <internalNodes>
        0 -1 420 -1406270824 -85303272 -1556128972 -704782256
        -1457258501 -73813061 455129085 -1939225375</internalNodes>
      <leafValues>
        -3.5463577508926392e-01 2.2528457641601562e-01</leafValues></_>
    <_>
      <internalNodes>
        0 -1 1042 519063268 -1567858984 -1353254945 -887032403
        1457288172 -72457477 937978692 -1370179744</internalNodes>
      <leafValues>
        -4.8684513568878174e-01 1.5729013085365295e-01</leafValues></_>
    <_>
      <internalNodes>
        0 -1 90 -957092213 1175341700 -805343232 1606211540 -825360694
        -413695820 -456009802 1423025124</internalNodes>
      <leafValues>
        -3.9100793004035950e-01 1.8377849459648132e-01</leafValues></_>
    <_>
      <internalNodes>
        0 -1 255 841789135 952674986 823546676 1974414912 1302885091
        1807548082 1755203758 2146385718</internalNodes>
      <leafValues>
        -3.2120674848556519e-01 2.2922898828983307e-01</leafValues></_>
    <_>
      <internalNodes>
        0 -1 1478 1930655403 205266680 -1022305345 -1392672268
        1041953268 -1875983655 775420892 -1897949735</internalNodes>
      <leafValues>
        -3.2819288969039917e-01 2.2859646379947662e-01</leafValues></_>
    <_>
      <internalNodes>
        0 -1 478 1037020603 -537333780 -78596 -304775532 1593630718
        -573014018 -107009 1744830459</internalNodes>
      <leafValues>
        -2.0823895931243896e-01 3.4531554579734802e-01</leafValues></_>
    <_>
      <internalNodes>
        0 -1 1213 2063439837 993839131 -677718665 -288067208 2040416444
        -1108672069 -1124959372 -84118668</internalNodes>
      <leafValues>
        -4.6961742639541626e-01 1.6887003183364868e-01</leafValues></_>
    <_>
      <internalNodes>
        0 -1 1449 -27285219 -1879710803 -1022108396 -1075910948
        -1726434696 -68362052 -1653145634 1848639478</internalNodes>
      <leafValues>
        -2.7623379230499268e-01 2.7946388721466064e-01</leafValues></_>
    <_>
      <internalNodes>
        0 -1 651 -50616541 -1086394125 1626630260 -217712 1262181229
        2126424379 1528526940 -187170826</internalNodes>
      <leafValues>
        -2.9762625694274902e-01 2.4604398012161255e-01</leafValues></_>
    <_>
      <internalNodes>
        0 -1 1386 976059571 775479774 -115911877 -1342377480 2067348977
        -616586596 -1145669131 -17236492</internalNodes>
      <leafValues>
        -4.5600634813308716e-01 1.5951158106327057e-01</leafValues></_>
    <_>
      <internalNodes>
        0 -1 1345 1600993205 2136832072 417219252 1065591796 -16968560
        2041178724 720747018 788001775</internalNodes>
      <leafValues>
        -3.1382653117179871e-01 2.3672166466712952e-01</leafValues></_>
    <_>
      <internalNodes>
        0 -1 733 -171719793 -275976202 238411739 1599856639 -539624041
        -134217729 2132135927 2143288314</internalNodes>
      <leafValues>
        -1.5324380993843079e-01 4.9196472764015198e-01</leafValues></_>
    <_>
      <internalNodes>
        0 -1 1208 90133427 -1118681380 -1861200396 2124403696 401505180
        2019083812 -1523819798 96435062</internalNodes>
      <leafValues>
        -2.7787247300148010e-01 2.6442858576774597e-01</leafValues></_>
    <_>
      <internalNodes>
        0 -1 1485 -75036588 -572566177 -2104603137 -511780984
        -1174226760 -30850877 -96797715 -801494461</internalNodes>
      <leafValues>
        -3.1065499782562256e-01 2.3709911108016968e-01</leafValues></_>
    <_>
      <internalNodes>
        0 -1 1296 -36214345 -1235510927 -747505160 654242676 1862089207
        2139718091 1035632240 -1091272844</internalNodes>
      <leafValues>
        -4.6461912989616394e-01 1.5175567567348480e-01</leafValues></_>
    <_>
      <internalNodes>
        0 -1 812 -1942138205 480027116 1128046812 -276521996 1347947188
        531804548 -358741028 100129398</internalNodes>
      <leafValues>
        -3.5562956333160400e-01 1.9949077069759369e-01</leafValues></_></weakClassifiers></stage7>
</opencv_storage>
