<?xml version="1.0"?>
<opencv_storage>
<stage8>
  <maxWeakCount>34</maxWeakCount>
  <stageThreshold>-2.1006302833557129e+00</stageThreshold>
  <weakClassifiers>
    <_>
      <internalNodes>
        0 -1 1599 -9 -1142956097 -1789724937 -1392610049 -1174684993
        -1359218450 -4194305 -1358954497</internalNodes>
      <leafValues>
        -8.1550377607345581e-01 -3.5550838708877563e-01</leafValues></_>
    <_>
      <internalNodes>
        0 -1 1567 -1605120 -136324097 1329715135 -538986583 -1568695638
        -102898769 -1213399621 -524661</internalNodes>
      <leafValues>
        -5.1106137037277222e-01 1.5289922058582306e-01</leafValues></_>
    <_>
      <internalNodes>
        0 -1 190 -616733955 -545817754 -795871747 -67176706 -1044821412
        1068769345 -1637580940 -78565579</internalNodes>
      <leafValues>
        -4.1270703077316284e-01 2.2563311457633972e-01</leafValues></_>
    <_>
      <internalNodes>
        0 -1 885 -798908256 -547230222 -1070311555 1438990335
        -1099307778 -83888138 1968553947 1879002535</internalNodes>
      <leafValues>
        -2.7145063877105713e-01 3.2334610819816589e-01</leafValues></_>
    <_>
      <internalNodes>
        0 -1 1179 2136970679 1060159480 -1343946956 -1141899272 -40996
        2147483645 -285311222 1023377311</internalNodes>
      <leafValues>
        -2.1969495713710785e-01 3.5705941915512085e-01</leafValues></_>
    <_>
      <internalNodes>
        0 -1 876 1358222815 -1645325353 -237254753 -509441 -686794128
        -73860135 -1166906884 -12943510</internalNodes>
      <leafValues>
        -2.9438039660453796e-01 2.6309648156166077e-01</leafValues></_>
    <_>
      <internalNodes>
        0 -1 486 335695288 -5767174 -1091768955 -606220611 -33554690
        -564330506 2114774971 1465098238</internalNodes>
      <leafValues>
        -2.5674974918365479e-01 2.8633502125740051e-01</leafValues></_>
    <_>
      <internalNodes>
        0 -1 39 189769454 516739278 -2109880420 1157427960 2060427402
        -118572122 -976244316 1607778110</internalNodes>
      <leafValues>
        -5.2734273672103882e-01 1.5502297878265381e-01</leafValues></_>
    <_>
      <internalNodes>
        0 -1 369 -238912769 -1883615009 -720308128 -70658 1956273038
        1249126580 -195052708 1627389431</internalNodes>
      <leafValues>
        -3.5497689247131348e-01 1.9423112273216248e-01</leafValues></_>
    <_>
      <internalNodes>
        0 -1 716 433997433 -1998699019 -748758657 1557561301 504387696
        -76141979 -77563086 -81625292</internalNodes>
      <leafValues>
        -4.6656653285026550e-01 1.5361997485160828e-01</leafValues></_>
    <_>
      <internalNodes>
        0 -1 1294 -22032965 2134761429 -34146064 1073741820 2113813960
        -1400897540 -285838598 1695022687</internalNodes>
      <leafValues>
        -2.4500267207622528e-01 3.2360178232192993e-01</leafValues></_>
    <_>
      <internalNodes>
        0 -1 955 78429887 786362862 -631716867 -1935215644 2078030844
        2140580767 -83009540 -17013772</internalNodes>
      <leafValues>
        -4.5186832547187805e-01 1.5393741428852081e-01</leafValues></_>
    <_>
      <internalNodes>
        0 -1 117 -555947352 -139791890 -1138966419 -809001546 1371196184
        -805784722 -283307811 1568643953</internalNodes>
      <leafValues>
        -2.8995949029922485e-01 2.5904634594917297e-01</leafValues></_>
    <_>
      <internalNodes>
        0 -1 1111 1555848183 1072328916 -31796227 -1342288932 -67613868
        -1142151109 -71664652 982449108</internalNodes>
      <leafValues>
        -4.3589994311332703e-01 1.5683552622795105e-01</leafValues></_>
    <_>
      <internalNodes>
        0 -1 765 2011106501 1066058740 -387704124 -1242694924 970093460
        2074509567 -1074757638 1740076390</internalNodes>
      <leafValues>
        -2.6613247394561768e-01 2.5199058651924133e-01</leafValues></_>
    <_>
      <internalNodes>
        0 -1 130 -1359302913 -46760002 -1074073730 -1064962 -839458819
        -753666 2143051514 1568660703</internalNodes>
      <leafValues>
        -1.9446901977062225e-01 3.4275081753730774e-01</leafValues></_>
    <_>
      <internalNodes>
        0 -1 125 -288822530 -561326264 -1531911610 -91556144 -375110934
        -570929223 865360239 -220774474</internalNodes>
      <leafValues>
        -2.7937951683998108e-01 2.5260862708091736e-01</leafValues></_>
    <_>
      <internalNodes>
        0 -1 1130 -856224764 2039147742 -1914799873 -563376693 -26101047
        -1716218681 -595888630 1072872220</internalNodes>
      <leafValues>
        -3.1002274155616760e-01 2.0967467129230499e-01</leafValues></_>
    <_>
      <internalNodes>
        0 -1 950 1456468991 -1971932291 1308009436 -1357975124 159076053
        429599290 -23426180 788003670</internalNodes>
      <leafValues>
        -3.1821858882904053e-01 2.1950279176235199e-01</leafValues></_>
    <_>
      <internalNodes>
        0 -1 988 -545260289 -807862276 -545370370 -4388 -42172935
        534020086 -1074856458 2063578111</internalNodes>
      <leafValues>
        -1.9728879630565643e-01 3.5393458604812622e-01</leafValues></_>
    <_>
      <internalNodes>
        0 -1 460 1858916077 -1702319226 1825765996 -169822944 1539977947
        2096296819 -74311609 1422359285</internalNodes>
      <leafValues>
        -3.3513104915618896e-01 2.0217792689800262e-01</leafValues></_>
    <_>
      <internalNodes>
        0 -1 512 633251739 780059898 -27627394 -128535660 -565180172
        708025079 -1159693628 -256574672</internalNodes>
      <leafValues>
        -5.2652287483215332e-01 1.2594178318977356e-01</leafValues></_>
    <_>
      <internalNodes>
        0 -1 978 1037595545 -1093766731 -1207905232 1844372988
        -343205188 1481951612 -299172 1064676862</internalNodes>
      <leafValues>
        -3.4485515952110291e-01 1.8639482557773590e-01</leafValues></_>
    <_>
      <internalNodes>
        0 -1 1054 478031543 -1880303682 -1481323011 -1476595284
        1945074044 -1081257509 234125936 -532873260</internalNodes>
      <leafValues>
        -4.7710394859313965e-01 1.3749311864376068e-01</leafValues></_>
    <_>
      <internalNodes>
        0 -1 769 874776200 497469678 -960209144 94103914 1543011092
        1058730236 -975156734 635665191</internalNodes>
      <leafValues>
        -5.3596407175064087e-01 1.1471235752105713e-01</leafValues></_>
    <_>
      <internalNodes>
        0 -1 1264 -545853055 514781163 1878949863 -1075658796 -159384372
        -129 -122372868 -1388990906</internalNodes>
      <leafValues>
        -2.2014422714710236e-01 3.3245038986206055e-01</leafValues></_>
    <_>
      <internalNodes>
        0 -1 1381 2146794756 -1074508035 -49668 1845137376 -21342280
        -1359880739 -1342377990 2012475006</internalNodes>
      <leafValues>
        -2.2980831563472748e-01 2.9066520929336548e-01</leafValues></_>
    <_>
      <internalNodes>
        0 -1 1593 1828650872 76206570 -1006046016 -369306388 1936978788
        1625299568 -134749772 -1068716812</internalNodes>
      <leafValues>
        -5.0844776630401611e-01 1.3244163990020752e-01</leafValues></_>
    <_>
      <internalNodes>
        0 -1 1575 2124897819 -1084268203 -1308556080 2009601654
        -176386560 -456529179 903920303 1467085696</internalNodes>
      <leafValues>
        -3.3520597219467163e-01 1.9378004968166351e-01</leafValues></_>
    <_>
      <internalNodes>
        0 -1 1266 -32004621 2134339309 -1074954320 -285933835 -277547214
        -11141124 799821662 2143025118</internalNodes>
      <leafValues>
        -2.1352551877498627e-01 3.1814453005790710e-01</leafValues></_>
    <_>
      <internalNodes>
        0 -1 1313 2136989631 756871828 -1020870930 -1924145988
        -1947086211 1797304749 -654378724 747633907</internalNodes>
      <leafValues>
        -2.4273844063282013e-01 2.6571491360664368e-01</leafValues></_>
    <_>
      <internalNodes>
        0 -1 176 1692307647 -1092734307 -238955427 1033417694 -233415428
        -789742323 -289134024 738227732</internalNodes>
      <leafValues>
        -5.6632524728775024e-01 1.2300411611795425e-01</leafValues></_>
    <_>
      <internalNodes>
        0 -1 1426 1071478193 -688196 -1073807496 -46137347 -545515622
        -8388610 742348346 1597243126</internalNodes>
      <leafValues>
        -2.3801831901073456e-01 2.6490619778633118e-01</leafValues></_>
    <_>
      <internalNodes>
        0 -1 1450 1970128881 -1114269456 -109629250 -671116324 -79345188
        -1147199333 1991048164 -251733068</internalNodes>
      <leafValues>
        -3.0450800061225891e-01 2.1430397033691406e-01</leafValues></_></weakClassifiers></stage8>
</opencv_storage>
