<?xml version="1.0"?>
<opencv_storage>
<cascade>
  <stageType>BOOST</stageType>
  <featureType>LBP</featureType>
  <height>16</height>
  <width>16</width>
  <stageParams>
    <boostType>GAB</boostType>
    <minHitRate>9.9900001287460327e-01</minHitRate>
    <maxFalseAlarm>5.0000000000000000e-01</maxFalseAlarm>
    <weightTrimRate>9.4999999999999996e-01</weightTrimRate>
    <maxDepth>1</maxDepth>
    <maxWeakCount>100</maxWeakCount></stageParams>
  <featureParams>
    <maxCatCount>256</maxCatCount>
    <featSize>1</featSize></featureParams>
  <stageNum>14</stageNum>
  <stages>
    <!-- stage 0 -->
    <_>
      <maxWeakCount>7</maxWeakCount>
      <stageThreshold>-2.6940445899963379e+00</stageThreshold>
      <weakClassifiers>
        <_>
          <internalNodes>
            0 -1 5 -1 -65538 -65537 -196610 -1 -65537 -1 -1</internalNodes>
          <leafValues>
            -8.6994832754135132e-01 4.2657342553138733e-01</leafValues></_>
        <_>
          <internalNodes>
            0 -1 86 -136317988 -1 -574292004 -1 -2228228 -1 -548077572
            -131073</internalNodes>
          <leafValues>
            -7.9596835374832153e-01 3.6011463403701782e-01</leafValues></_>
        <_>
          <internalNodes>
            0 -1 140 2147319807 -81923 -1 -65540 -131076 -196611
            -16973828 -16973840</internalNodes>
          <leafValues>
            -6.1237943172454834e-01 5.1047724485397339e-01</leafValues></_>
        <_>
          <internalNodes>
            0 -1 122 -32777 1073414142 -16777219 -1090617362 -2135171 -1
            -458892 -51052748</internalNodes>
          <leafValues>
            -6.5239351987838745e-01 4.4459983706474304e-01</leafValues></_>
        <_>
          <internalNodes>
            0 -1 160 1064959871 -1360068612 -4097 -17367044 -229411
            2146435071 -12 -318964492</internalNodes>
          <leafValues>
            -6.2109637260437012e-01 4.0213894844055176e-01</leafValues></_>
        <_>
          <internalNodes>
            0 -1 101 1690239488 -1208584201 -403259562 -1078525954
            2147450765 -1 1979056126 -1208483970</internalNodes>
          <leafValues>
            -6.1120706796646118e-01 3.8039088249206543e-01</leafValues></_>
        <_>
          <internalNodes>
            0 -1 18 -285217025 -825823506 -286329114 -85262348
            1878515196 1979121663 -306186260 -195690505</internalNodes>
          <leafValues>
            -5.4588478803634644e-01 3.9482164382934570e-01</leafValues></_></weakClassifiers></_>
    <!-- stage 1 -->
    <_>
      <maxWeakCount>8</maxWeakCount>
      <stageThreshold>-2.2199070453643799e+00</stageThreshold>
      <weakClassifiers>
        <_>
          <internalNodes>
            0 -1 7 -1 -65538 -65537 -33751044 -1 -1 -1 -1</internalNodes>
          <leafValues>
            -8.6679059267044067e-01 2.3983739316463470e-01</leafValues></_>
        <_>
          <internalNodes>
            0 -1 166 -32993 -129 -8388609 -65 -33020 -1153 -1 -1</internalNodes>
          <leafValues>
            -6.6879153251647949e-01 4.8115938901901245e-01</leafValues></_>
        <_>
          <internalNodes>
            0 -1 135 -1 -1107296769 -1073742212 -1883242892 -524356
            -285348100 -285736964 -587866124</internalNodes>
          <leafValues>
            -5.8419454097747803e-01 4.4745898246765137e-01</leafValues></_>
        <_>
          <internalNodes>
            0 -1 124 1073708543 1039990780 -65797 -1073938692 -34250756
            -33751556 -50454556 -1393246724</internalNodes>
          <leafValues>
            -5.4319387674331665e-01 4.1723516583442688e-01</leafValues></_>
        <_>
          <internalNodes>
            0 -1 109 -1090789377 -1364263050 -655361 -285803268 -237572
            -134283266 -102532 -285442060</internalNodes>
          <leafValues>
            -5.7532989978790283e-01 3.7507814168930054e-01</leafValues></_>
        <_>
          <internalNodes>
            0 -1 15 -424685906 -3215750 -285278222 2012012174 2147483641
            -1811460 -35192902 1599209210</internalNodes>
          <leafValues>
            -5.6141531467437744e-01 3.6590421199798584e-01</leafValues></_>
        <_>
          <internalNodes>
            0 -1 30 2147450749 -1091568257 -608178438 -1166344204
            1316972409 2138996607 -336363659 -92864681</internalNodes>
          <leafValues>
            -5.1273149251937866e-01 3.8153976202011108e-01</leafValues></_>
        <_>
          <internalNodes>
            0 -1 171 1879000573 805239804 -33100 -286326916 2113216340
            -12583233 -403898508 -51060748</internalNodes>
          <leafValues>
            -6.6090810298919678e-01 2.7094930410385132e-01</leafValues></_></weakClassifiers></_>
    <!-- stage 2 -->
    <_>
      <maxWeakCount>8</maxWeakCount>
      <stageThreshold>-2.2766077518463135e+00</stageThreshold>
      <weakClassifiers>
        <_>
          <internalNodes>
            0 -1 33 -353374209 -513 -8705 -1 -272629761 -65 -1 -1</internalNodes>
          <leafValues>
            -8.3785712718963623e-01 4.0102097392082214e-01</leafValues></_>
        <_>
          <internalNodes>
            0 -1 35 -11550838 -1 1565547871 -5 -4194305 -2097153
            2147483579 -1</internalNodes>
          <leafValues>
            -6.7984163761138916e-01 3.3314689993858337e-01</leafValues></_>
        <_>
          <internalNodes>
            0 -1 190 -221 -1111490641 -420483552 -4472849 -508 -2228353
            -69436 -184549385</internalNodes>
          <leafValues>
            -5.0285392999649048e-01 4.4347786903381348e-01</leafValues></_>
        <_>
          <internalNodes>
            0 -1 66 -539009025 -172134529 -131105 -67977218 2142597332
            -766089 -8489148 -76513424</internalNodes>
          <leafValues>
            -5.6489723920822144e-01 3.7579560279846191e-01</leafValues></_>
        <_>
          <internalNodes>
            0 -1 17 -268537873 -1631781956 -136384146 -44106500
            -50925570 -722947 -572777476 -48203472</internalNodes>
          <leafValues>
            -6.8401616811752319e-01 2.7391684055328369e-01</leafValues></_>
        <_>
          <internalNodes>
            0 -1 11 -1410416898 -152109378 -4403476 -973288198
            2143158238 -807601153 -1662125058 1173053054</internalNodes>
          <leafValues>
            -5.4020059108734131e-01 3.3179247379302979e-01</leafValues></_>
        <_>
          <internalNodes>
            0 -1 92 -55115845 1060438004 2146238066 -5312602 -540247588
            677183460 -106580 1956995070</internalNodes>
          <leafValues>
            -5.6026750802993774e-01 2.9070290923118591e-01</leafValues></_>
        <_>
          <internalNodes>
            0 -1 174 804878079 -1363346183 -402653187 -1929529892
            2122315773 -1912604419 1870659580 -1929470504</internalNodes>
          <leafValues>
            -5.1925784349441528e-01 3.0166310071945190e-01</leafValues></_></weakClassifiers></_>
    <!-- stage 3 -->
    <_>
      <maxWeakCount>9</maxWeakCount>
      <stageThreshold>-2.4668412208557129e+00</stageThreshold>
      <weakClassifiers>
        <_>
          <internalNodes>
            0 -1 114 -2281 -1 -1 -1 -1 -263169 -1 -1</internalNodes>
          <leafValues>
            -8.3833050727844238e-01 3.0145528912544250e-01</leafValues></_>
        <_>
          <internalNodes>
            0 -1 1 -1427181841 -1142034438 -135268353 -2101577
            -151142401 -65 -1077940225 -1</internalNodes>
          <leafValues>
            -6.1903131008148193e-01 3.4473085403442383e-01</leafValues></_>
        <_>
          <internalNodes>
            0 -1 145 1069383543 -1359151108 -553910273 -1157828612
            -32771 -65539 -537035148 -1090718220</internalNodes>
          <leafValues>
            -6.5741086006164551e-01 2.7911490201950073e-01</leafValues></_>
        <_>
          <internalNodes>
            0 -1 31 -50331649 -403767297 -67438849 -67960846 -312453
            -151749771 -8946049 -42827913</internalNodes>
          <leafValues>
            -4.3415415287017822e-01 4.3164491653442383e-01</leafValues></_>
        <_>
          <internalNodes>
            0 -1 21 -286527489 -328269827 -16847642 -16842794 -4097
            1425504255 -43190529 -151257097</internalNodes>
          <leafValues>
            -4.5595195889472961e-01 3.8130685687065125e-01</leafValues></_>
        <_>
          <internalNodes>
            0 -1 155 2146926013 804847612 2139090876 -1361118220
            2146987004 -131140 -18579468 -285933580</internalNodes>
          <leafValues>
            -5.7748907804489136e-01 2.8871488571166992e-01</leafValues></_>
        <_>
          <internalNodes>
            0 -1 115 -201906240 -1051665 -139608100 2012081151
            1733745156 -34669975 557653918 1968959231</internalNodes>
          <leafValues>
            -5.1140868663787842e-01 2.8063166141510010e-01</leafValues></_>
        <_>
          <internalNodes>
            0 -1 146 934674291 -1112474371 1054342142 469691896
            -1644388868 1073675263 -1140981764 -1129424392</internalNodes>
          <leafValues>
            -4.6239665150642395e-01 3.0601766705513000e-01</leafValues></_>
        <_>
          <internalNodes>
            0 -1 186 -538469629 -8950097 1873374078 1811793789
            -369182142 1977409277 -151131188 -487163038</internalNodes>
          <leafValues>
            -3.8254517316818237e-01 3.7879437208175659e-01</leafValues></_></weakClassifiers></_>
    <!-- stage 4 -->
    <_>
      <maxWeakCount>10</maxWeakCount>
      <stageThreshold>-2.9047875404357910e+00</stageThreshold>
      <weakClassifiers>
        <_>
          <internalNodes>
            0 -1 187 -237 -2081 -705168385 -1 -508 -69468421 -67108865
            -1</internalNodes>
          <leafValues>
            -8.5401642322540283e-01 1.3354530930519104e-01</leafValues></_>
        <_>
          <internalNodes>
            0 -1 34 -5264470 -2561 925771113 -8650881 -67108865 -1
            2147483647 -1</internalNodes>
          <leafValues>
            -7.2015792131423950e-01 3.2743519544601440e-01</leafValues></_>
        <_>
          <internalNodes>
            0 -1 2 -353440018 -269603224 -73795 1467944933 2147481087
            2130636795 -134258705 2147483647</internalNodes>
          <leafValues>
            -5.5214411020278931e-01 3.2239422202110291e-01</leafValues></_>
        <_>
          <internalNodes>
            0 -1 144 -536871621 -1348536336 -146833449 -1090585732
            -1073974412 -67109889 -196748 -16973836</internalNodes>
          <leafValues>
            -5.7690227031707764e-01 2.9648110270500183e-01</leafValues></_>
        <_>
          <internalNodes>
            0 -1 95 1071644457 1070592319 -305202184 -176161416
            2139094708 1142744436 -273219588 2102394334</internalNodes>
          <leafValues>
            -4.3440771102905273e-01 3.9662724733352661e-01</leafValues></_>
        <_>
          <internalNodes>
            0 -1 84 -1975902413 -53973196 -610337537 -610330123
            -1120584707 -542381057 -1153958657 -285948459</internalNodes>
          <leafValues>
            -4.1848427057266235e-01 3.9013308286666870e-01</leafValues></_>
        <_>
          <internalNodes>
            0 -1 182 -299385933 -1426523720 -33816593 -1930498568
            -131107 754922429 -1744896011 -1996687876</internalNodes>
          <leafValues>
            -5.3770881891250610e-01 2.7965477108955383e-01</leafValues></_>
        <_>
          <internalNodes>
            0 -1 22 -823169281 -294715521 1983837930 -625149018
            -746822054 -383782595 -12930732 -134742224</internalNodes>
          <leafValues>
            -4.2575997114181519e-01 3.5747170448303223e-01</leafValues></_>
        <_>
          <internalNodes>
            0 -1 130 -1367396361 -1371621377 -67110017 1828518908
            2145221445 -1076233611 2128543540 -16973836</internalNodes>
          <leafValues>
            -5.3730440139770508e-01 2.7945205569267273e-01</leafValues></_>
        <_>
          <internalNodes>
            0 -1 120 1005023187 -1078657036 -197446 -65540 -537538572
            2136858621 -1253522 935559151</internalNodes>
          <leafValues>
            -3.7905511260032654e-01 4.2397424578666687e-01</leafValues></_></weakClassifiers></_>
    <!-- stage 5 -->
    <_>
      <maxWeakCount>12</maxWeakCount>
      <stageThreshold>-2.2615952491760254e+00</stageThreshold>
      <weakClassifiers>
        <_>
          <internalNodes>
            0 -1 164 -2105577 -2098209 -1149239297 -33 -67108865 -549
            -1048577 -1</internalNodes>
          <leafValues>
            -8.3847516775131226e-01 1.4567458629608154e-01</leafValues></_>
        <_>
          <internalNodes>
            0 -1 12 -402657281 -454103122 -360975273 -33565762 -2101249
            -302005333 -254027841 -4101</internalNodes>
          <leafValues>
            -5.5455034971237183e-01 4.8113432526588440e-01</leafValues></_>
        <_>
          <internalNodes>
            0 -1 167 -159385856 -4456455 -1086915777 2147450878
            -419998460 -42 641105838 1069547515</internalNodes>
          <leafValues>
            -5.6414747238159180e-01 3.2544568181037903e-01</leafValues></_>
        <_>
          <internalNodes>
            0 -1 74 1018756863 -1935638594 -1090588933 -285933580
            2062964862 -603137 -813760802 -17500172</internalNodes>
          <leafValues>
            -5.9013056755065918e-01 2.5185737013816833e-01</leafValues></_>
        <_>
          <internalNodes>
            0 -1 70 -2136297677 334378218 -2163713 1565971963 2138423199
            -1091076099 -3875841 -31489</internalNodes>
          <leafValues>
            -3.4244841337203979e-01 4.5613428950309753e-01</leafValues></_>
        <_>
          <internalNodes>
            0 -1 62 1811869476 2131654432 -576928204 -102738 -270611730
            5029940 -16842756 1444466474</internalNodes>
          <leafValues>
            -6.3447457551956177e-01 2.3546944558620453e-01</leafValues></_>
        <_>
          <internalNodes>
            0 -1 29 -38830249 -8450053 -2097713699 -35721228 -352904582
            -1748419 469728116 -9273487</internalNodes>
          <leafValues>
            -4.5295959711074829e-01 3.1910720467567444e-01</leafValues></_>
        <_>
          <internalNodes>
            0 -1 39 1251720939 -19077186 -409668898 1308450398 502168574
            1591645177 -287343634 1440161595</internalNodes>
          <leafValues>
            -3.6648947000503540e-01 4.0048024058341980e-01</leafValues></_>
        <_>
          <internalNodes>
            0 -1 82 869227627 1526617079 -2427009 1576728566 -540780176
            -76127559 -76529866 -80576656</internalNodes>
          <leafValues>
            -5.1364886760711670e-01 2.6619893312454224e-01</leafValues></_>
        <_>
          <internalNodes>
            0 -1 93 -822125833 -1895894017 1426036729 720828366
            -93557928 -1073824895 -88187012 -83951756</internalNodes>
          <leafValues>
            -5.2256709337234497e-01 2.5733855366706848e-01</leafValues></_>
        <_>
          <internalNodes>
            0 -1 189 -5247163 -34209795 -98372 -2130948 -134742020
            -572523009 -4198660 -1460932609</internalNodes>
          <leafValues>
            -3.0489408969879150e-01 4.8527428507804871e-01</leafValues></_>
        <_>
          <internalNodes>
            0 -1 25 -320934913 780061692 -57484042 -1114164 2067101695
            1552031632 -2732344 1895267199</internalNodes>
          <leafValues>
            -4.8621952533721924e-01 2.9278752207756042e-01</leafValues></_></weakClassifiers></_>
    <!-- stage 6 -->
    <_>
      <maxWeakCount>14</maxWeakCount>
      <stageThreshold>-2.7925353050231934e+00</stageThreshold>
      <weakClassifiers>
        <_>
          <internalNodes>
            0 -1 125 -161 -2049 -35651585 -513 -67372033 -6913 -1025
            -1025</internalNodes>
          <leafValues>
            -8.1490427255630493e-01 2.6646155118942261e-01</leafValues></_>
        <_>
          <internalNodes>
            0 -1 188 -2099413 -2621453 -1343490333 -101189641 -136316156
            -604243090 -83952642 -68157441</internalNodes>
          <leafValues>
            -5.5425226688385010e-01 3.5947233438491821e-01</leafValues></_>
        <_>
          <internalNodes>
            0 -1 175 -41951237 146718333 -71 -2063597699 -1879052289
            -1929379841 1577057789 -1929381889</internalNodes>
          <leafValues>
            -4.0541717410087585e-01 4.3296432495117188e-01</leafValues></_>
        <_>
          <internalNodes>
            0 -1 16 -296816897 -928317570 1792928996 -20267312
            -135836693 -680171785 670555365 -218628169</internalNodes>
          <leafValues>
            -4.0285617113113403e-01 3.7431579828262329e-01</leafValues></_>
        <_>
          <internalNodes>
            0 -1 133 -134873327 -1117979724 1938979828 -1074266308
            -134234172 257949497 -78136 656932674</internalNodes>
          <leafValues>
            -4.6441051363945007e-01 2.9987606406211853e-01</leafValues></_>
        <_>
          <internalNodes>
            0 -1 75 -1107398913 -1897078796 -25495554 -83952902
            -84117380 -29432878 -591498 -84344988</internalNodes>
          <leafValues>
            -5.2303135395050049e-01 2.6970267295837402e-01</leafValues></_>
        <_>
          <internalNodes>
            0 -1 106 2146171233 1058471932 -885859540 -1342242988
            1507482604 2069428655 -286359684 619151222</internalNodes>
          <leafValues>
            -5.0296813249588013e-01 2.6560249924659729e-01</leafValues></_>
        <_>
          <internalNodes>
            0 -1 118 -1199688001 -1897072728 -1224943489 -404947140
            -202475140 -414725 -1644626084 -285671468</internalNodes>
          <leafValues>
            -4.5214611291885376e-01 2.7094218134880066e-01</leafValues></_>
        <_>
          <internalNodes>
            0 -1 0 -1968315157 -1662347606 266015223 -34115078
            -202392885 -1573633 1441234687 -1360003843</internalNodes>
          <leafValues>
            -3.5590317845344543e-01 3.6656227707862854e-01</leafValues></_>
        <_>
          <internalNodes>
            0 -1 172 1073176153 782816724 -1679896067 -302384804
            2121562749 2063576028 -33932 -16973836</internalNodes>
          <leafValues>
            -5.2306741476058960e-01 2.2839097678661346e-01</leafValues></_>
        <_>
          <internalNodes>
            0 -1 129 349404963 1870200828 -1073905674 -4194340
            2096390080 1448370142 -1896980486 2002746975</internalNodes>
          <leafValues>
            -3.1466105580329895e-01 3.6553496122360229e-01</leafValues></_>
        <_>
          <internalNodes>
            0 -1 81 -570458145 1509348319 -1150322193 -1150102529
            -141270416 -72666115 2066365370 -67960970</internalNodes>
          <leafValues>
            -3.2973229885101318e-01 3.3868157863616943e-01</leafValues></_>
        <_>
          <internalNodes>
            0 -1 6 -1029378337 -1494865234 1457145695 1442254832
            -620988931 -134681410 -995205218 1013922687</internalNodes>
          <leafValues>
            -4.1858643293380737e-01 2.7106940746307373e-01</leafValues></_>
        <_>
          <internalNodes>
            0 -1 169 1442265073 759423976 -1404306772 -306254084
            -71532860 -426291 2026666612 -392366476</internalNodes>
          <leafValues>
            -5.1410454511642456e-01 2.2557124495506287e-01</leafValues></_></weakClassifiers></_>
    <!-- stage 7 -->
    <_>
      <maxWeakCount>15</maxWeakCount>
      <stageThreshold>-2.4729566574096680e+00</stageThreshold>
      <weakClassifiers>
        <_>
          <internalNodes>
            0 -1 114 -34089707 -138683617 -606339585 -2099201
            -1128090627 -1078202117 -1130382337 -1025</internalNodes>
          <leafValues>
            -8.4097051620483398e-01 -1.8788231909275055e-01</leafValues></_>
        <_>
          <internalNodes>
            0 -1 108 -1 -551957508 -1622871044 -4456710 1314769884
            458859164 -72942594 1966342143</internalNodes>
          <leafValues>
            -5.9628891944885254e-01 2.3768906295299530e-01</leafValues></_>
        <_>
          <internalNodes>
            0 -1 55 400552679 -572763170 -2079006724 2111700556
            -118623238 -648236612 -342556706 1431699418</internalNodes>
          <leafValues>
            -4.9816641211509705e-01 3.3490803837776184e-01</leafValues></_>
        <_>
          <internalNodes>
            0 -1 36 -582016050 -271584257 1263321996 -819993901 -262342
            2143020282 1063112639 1600125951</internalNodes>
          <leafValues>
            -4.8407480120658875e-01 2.9040005803108215e-01</leafValues></_>
        <_>
          <internalNodes>
            0 -1 196 -1141899305 -1410400581 -1652555791 -1359022081
            -2013266243 -1375732226 -16777217 -1933574657</internalNodes>
          <leafValues>
            -2.6278474926948547e-01 4.9300658702850342e-01</leafValues></_>
        <_>
          <internalNodes>
            0 -1 191 -72615373 -1216352732 -291843552 -559949908
            -336725184 -1213106011 -24199196 -522715161</internalNodes>
          <leafValues>
            -3.9271101355552673e-01 3.0776068568229675e-01</leafValues></_>
        <_>
          <internalNodes>
            0 -1 72 -536888257 -1610809568 2113855356 -8431744
            1576820716 1069547517 -1073987970 1995669366</internalNodes>
          <leafValues>
            -3.0595695972442627e-01 3.8942149281501770e-01</leafValues></_>
        <_>
          <internalNodes>
            0 -1 80 -111214913 1953520126 -470090276 -2428936 -613393968
            1603295422 -299481000 2012708734</internalNodes>
          <leafValues>
            -3.4786742925643921e-01 3.2831904292106628e-01</leafValues></_>
        <_>
          <internalNodes>
            0 -1 179 -650772476 -551551138 -740043778 -1753924298
            -168056388 -1588632984 518500282 -1368252434</internalNodes>
          <leafValues>
            -4.4584015011787415e-01 2.5001636147499084e-01</leafValues></_>
        <_>
          <internalNodes>
            0 -1 157 1066909619 -1742932100 -660742924 -1621108544
            2105078768 724892597 -1409755410 1035206646</internalNodes>
          <leafValues>
            -3.2310098409652710e-01 3.4715908765792847e-01</leafValues></_>
        <_>
          <internalNodes>
            0 -1 47 -536871329 -1639937 -176237858 -142715906 684784756
            2143609219 -1082622192 -78613179</internalNodes>
          <leafValues>
            -4.4399175047874451e-01 2.6424378156661987e-01</leafValues></_>
        <_>
          <internalNodes>
            0 -1 24 1859550975 1783513598 1283776210 -65954 504719607
            1213492054 2050281196 1426055034</internalNodes>
          <leafValues>
            -4.2500033974647522e-01 2.4760469794273376e-01</leafValues></_>
        <_>
          <internalNodes>
            0 -1 193 2063593401 178845068 -303305488 -101385544
            2077753156 -360252808 1996407796 -2075333396</internalNodes>
          <leafValues>
            -5.0136208534240723e-01 1.9655035436153412e-01</leafValues></_>
        <_>
          <internalNodes>
            0 -1 126 -140920937 -1048972 -21692424 1840635754 -27395448
            -33685667 1528676122 2136727519</internalNodes>
          <leafValues>
            -2.8410771489143372e-01 3.6852556467056274e-01</leafValues></_>
        <_>
          <internalNodes>
            0 -1 162 -1245986951 -1530989584 -745016385 -1914931212
            -1146901539 798935725 -335691780 -1359063828</internalNodes>
          <leafValues>
            -3.9458331465721130e-01 2.6183134317398071e-01</leafValues></_></weakClassifiers></_>
    <!-- stage 8 -->
    <_>
      <maxWeakCount>18</maxWeakCount>
      <stageThreshold>-2.5633614063262939e+00</stageThreshold>
      <weakClassifiers>
        <_>
          <internalNodes>
            0 -1 3 -525407489 -38154083 496488959 -1208001537 1107029247
            -71597063 -7479297 -5889</internalNodes>
          <leafValues>
            -8.4675413370132446e-01 -2.1767067909240723e-01</leafValues></_>
        <_>
          <internalNodes>
            0 -1 53 1562041082 -8394633 10618507 2007725999 -336360534
            -307013 932859887 2013216703</internalNodes>
          <leafValues>
            -5.9770560264587402e-01 2.1240513026714325e-01</leafValues></_>
        <_>
          <internalNodes>
            0 -1 13 -1118978 -571279172 -870949634 1610533592 -69411910
            -85001554 2075446266 1107254879</internalNodes>
          <leafValues>
            -4.5844522118568420e-01 3.0406579375267029e-01</leafValues></_>
        <_>
          <internalNodes>
            0 -1 94 -33562645 2133671604 -70028 -37781576 -572760836
            492109052 -16879622 1361567711</internalNodes>
          <leafValues>
            -3.5584703087806702e-01 3.8340476155281067e-01</leafValues></_>
        <_>
          <internalNodes>
            0 -1 168 -279851 -15138828 -33816672 -1073742084 -2686984
            -8454148 -552681666 1060632443</internalNodes>
          <leafValues>
            -3.1475919485092163e-01 4.0745243430137634e-01</leafValues></_>
        <_>
          <internalNodes>
            0 -1 30 -537438339 -16945153 -621544449 1006370807
            -831037631 -8880257 -336363660 -13140121</internalNodes>
          <leafValues>
            -2.9348334670066833e-01 3.8964253664016724e-01</leafValues></_>
        <_>
          <internalNodes>
            0 -1 44 -1358958849 1608019933 -17240244 -33554476
            1608404478 -865009668 2130107612 1593827327</internalNodes>
          <leafValues>
            -2.7703166007995605e-01 3.8489031791687012e-01</leafValues></_>
        <_>
          <internalNodes>
            0 -1 136 2130034429 -1149971170 -71380489 -1361248900
            2076723644 -33684997 -1080852620 -17006604</internalNodes>
          <leafValues>
            -5.3262686729431152e-01 2.0454972982406616e-01</leafValues></_>
        <_>
          <internalNodes>
            0 -1 117 2147355984 -14499826 -1615921532 804100620
            2135779884 1606216445 1646530190 388440063</internalNodes>
          <leafValues>
            -5.0788152217864990e-01 1.9671277701854706e-01</leafValues></_>
        <_>
          <internalNodes>
            0 -1 104 2118511283 506909567 -1056773236 -4197464
            1300126612 433158538 -621278228 620232566</internalNodes>
          <leafValues>
            -3.7920930981636047e-01 2.5534808635711670e-01</leafValues></_>
        <_>
          <internalNodes>
            0 -1 0 -930427671 -6094920 -1073801995 -561666 -70255925
            -1142522113 -1343308034 -1342180097</internalNodes>
          <leafValues>
            -2.6779228448867798e-01 3.6983501911163330e-01</leafValues></_>
        <_>
          <internalNodes>
            0 -1 83 534076535 2010959967 2048302288 -924934692 -6594074
            1880154144 966472412 553070844</internalNodes>
          <leafValues>
            -5.2692443132400513e-01 1.8735015392303467e-01</leafValues></_>
        <_>
          <internalNodes>
            0 -1 41 874916011 -1160850482 1083442100 -273326210
            1537123198 -77851940 -29828100 483199890</internalNodes>
          <leafValues>
            -4.1856619715690613e-01 2.2221046686172485e-01</leafValues></_>
        <_>
          <internalNodes>
            0 -1 141 -532742139 -572588898 1408760287 1363857918
            -1257655652 -192056879 809699514 1605521668</internalNodes>
          <leafValues>
            -3.6482432484626770e-01 2.5189292430877686e-01</leafValues></_>
        <_>
          <internalNodes>
            0 -1 26 1860145407 -1093388385 -746203617 -1118257666
            -362914580 -668377067 -364893380 1059093012</internalNodes>
          <leafValues>
            -5.7604521512985229e-01 1.6519150137901306e-01</leafValues></_>
        <_>
          <internalNodes>
            0 -1 79 2147367927 -1897997575 -921954913 -1356174968
            -1735570980 460601976 -1296663974 1945468763</internalNodes>
          <leafValues>
            -3.3653688430786133e-01 2.9692026972770691e-01</leafValues></_>
        <_>
          <internalNodes>
            0 -1 154 -537561933 621457628 -35710723 -1915817040
            1733718516 -1883831554 -1346569356 -1091257612</internalNodes>
          <leafValues>
            -4.8534375429153442e-01 2.0479363203048706e-01</leafValues></_>
        <_>
          <internalNodes>
            0 -1 137 2012733427 1060954514 -11489744 -1916829972
            -543327403 758703700 2092367820 1680199286</internalNodes>
          <leafValues>
            -4.5070284605026245e-01 2.0441676676273346e-01</leafValues></_></weakClassifiers></_>
    <!-- stage 9 -->
    <_>
      <maxWeakCount>18</maxWeakCount>
      <stageThreshold>-2.5894525051116943e+00</stageThreshold>
      <weakClassifiers>
        <_>
          <internalNodes>
            0 -1 49 -894764033 -604114693 -10879489 -42541 -74448901
            -11269 -268436993 -4195329</internalNodes>
          <leafValues>
            -8.1394767761230469e-01 -1.5156130492687225e-01</leafValues></_>
        <_>
          <internalNodes>
            0 -1 29 -34635777 -825377 -690489345 -35653761 -101753221
            -2271394 -70156527 -8962189</internalNodes>
          <leafValues>
            -5.6422585248947144e-01 1.7190143465995789e-01</leafValues></_>
        <_>
          <internalNodes>
            0 -1 9 -491786533 -320721174 -692478442 -190011 -893128961
            -158145345 1692395231 -505426193</internalNodes>
          <leafValues>
            -3.2785999774932861e-01 4.0890529751777649e-01</leafValues></_>
        <_>
          <internalNodes>
            0 -1 151 -14942767 1058138772 128630688 -1079389729
            -44630532 1864195070 804288350 653754239</internalNodes>
          <leafValues>
            -3.3902230858802795e-01 3.3920380473136902e-01</leafValues></_>
        <_>
          <internalNodes>
            0 -1 185 -8420863 -570445972 2004022587 2113265499
            -1193440376 -176685089 2127998890 2068574990</internalNodes>
          <leafValues>
            -3.0030468106269836e-01 3.4124240279197693e-01</leafValues></_>
        <_>
          <internalNodes>
            0 -1 195 -612581197 -1105661174 -742474256 -1464591628
            -545259538 703625977 -33687560 -1929577283</internalNodes>
          <leafValues>
            -3.5933688282966614e-01 2.8084570169448853e-01</leafValues></_>
        <_>
          <internalNodes>
            0 -1 134 -779125375 -1082787971 -411698256 -1611145328
            -1175290900 2136996440 1811415034 2133851955</internalNodes>
          <leafValues>
            -2.8080347180366516e-01 3.4996369481086731e-01</leafValues></_>
        <_>
          <internalNodes>
            0 -1 139 1476311927 260064592 -1080567600 -1345526408
            1046953845 1027377656 184440948 670036442</internalNodes>
          <leafValues>
            -4.1162809729576111e-01 2.4393007159233093e-01</leafValues></_>
        <_>
          <internalNodes>
            0 -1 119 224216215 1069065716 -369308516 -1377896732
            2004637972 1610397940 -856915970 887979828</internalNodes>
          <leafValues>
            -4.5389488339424133e-01 2.1205547451972961e-01</leafValues></_>
        <_>
          <internalNodes>
            0 -1 99 234632671 2109363934 -1021582433 -8900233 1473273840
            -71541521 -1150259728 -1153794208</internalNodes>
          <leafValues>
            -4.3869161605834961e-01 2.1562795341014862e-01</leafValues></_>
        <_>
          <internalNodes>
            0 -1 158 2134835115 775483868 -236981431 -1346043944
            1941797877 -545277507 -886560 -1157693964</internalNodes>
          <leafValues>
            -4.5301964879035950e-01 1.9755792617797852e-01</leafValues></_>
        <_>
          <internalNodes>
            0 -1 77 -4755457 -1389035524 -69980 -1078464650 -553799686
            794361716 -598274 397401855</internalNodes>
          <leafValues>
            -2.6429504156112671e-01 3.4926944971084595e-01</leafValues></_>
        <_>
          <internalNodes>
            0 -1 14 -286347601 1063976702 -16978321 -171455050
            1425858558 1610547071 -524545 1568669695</internalNodes>
          <leafValues>
            -2.4574424326419830e-01 3.6861523985862732e-01</leafValues></_>
        <_>
          <internalNodes>
            0 -1 122 2105425783 1001451996 -589311523 -1359070378
            -74750156 -117469477 -338625676 -16973932</internalNodes>
          <leafValues>
            -5.3680735826492310e-01 1.6774488985538483e-01</leafValues></_>
        <_>
          <internalNodes>
            0 -1 150 2147424129 1065319417 -1363227692 1066663874
            -1109455736 -124785296 619687434 754969599</internalNodes>
          <leafValues>
            -3.3595070242881775e-01 2.6674053072929382e-01</leafValues></_>
        <_>
          <internalNodes>
            0 -1 112 1532689533 -537076996 -767163652 -822204708
            -79410184 1049896952 -1146188676 989815666</internalNodes>
          <leafValues>
            -3.5674816370010376e-01 2.4880106747150421e-01</leafValues></_>
        <_>
          <internalNodes>
            0 -1 89 -171994897 -1746098002 -302719080 1070067501
            1324817398 1073266617 -353927602 667568358</internalNodes>
          <leafValues>
            -3.0711585283279419e-01 2.9601171612739563e-01</leafValues></_>
        <_>
          <internalNodes>
            0 -1 37 212385440 178188140 -136254504 128130942 970514220
            1556003481 870185980 1468517879</internalNodes>
          <leafValues>
            -5.9870547056198120e-01 1.5862663090229034e-01</leafValues></_></weakClassifiers></_>
    <!-- stage 10 -->
    <_>
      <maxWeakCount>20</maxWeakCount>
      <stageThreshold>-2.4562075138092041e+00</stageThreshold>
      <weakClassifiers>
        <_>
          <internalNodes>
            0 -1 31 -102891521 -33557281 -648482337 -795137 -71320833
            -17404929 -605814785 -9207937</internalNodes>
          <leafValues>
            -8.0078363418579102e-01 -1.4121800661087036e-01</leafValues></_>
        <_>
          <internalNodes>
            0 -1 147 -730332043 -36334161 -298497 -33983562 -1160664609
            -38862117 -1079010389 -5263397</internalNodes>
          <leafValues>
            -5.4073232412338257e-01 1.6621357202529907e-01</leafValues></_>
        <_>
          <internalNodes>
            0 -1 180 -218107899 -42093097 -1973974465 804257429
            -931555328 -44471979 -253429510 1717828863</internalNodes>
          <leafValues>
            -4.2476403713226318e-01 2.5936320424079895e-01</leafValues></_>
        <_>
          <internalNodes>
            0 -1 54 -72810754 992137002 -1831668 1978992448 -1644213521
            1004204959 -1146193169 267877223</internalNodes>
          <leafValues>
            -3.5342395305633545e-01 3.0183058977127075e-01</leafValues></_>
        <_>
          <internalNodes>
            0 -1 58 517981367 -1073807746 -286982156 -134885812
            -33882114 -572719362 -318996485 123592638</internalNodes>
          <leafValues>
            -2.9429051280021667e-01 3.2660257816314697e-01</leafValues></_>
        <_>
          <internalNodes>
            0 -1 105 1931076533 2145487100 -736332988 -1073873284
            -346168352 -1680475144 -1229029430 1410695038</internalNodes>
          <leafValues>
            -4.4022750854492188e-01 2.0996959507465363e-01</leafValues></_>
        <_>
          <internalNodes>
            0 -1 163 2147482103 989772792 -6152 -1912815620 1308587741
            146732924 -176163347 -1930429185</internalNodes>
          <leafValues>
            -2.7442076802253723e-01 3.2320252060890198e-01</leafValues></_>
        <_>
          <internalNodes>
            0 -1 91 1023071995 -1736910980 -1172379796 -285410340
            1993626236 -648099857 -86578668 -16974864</internalNodes>
          <leafValues>
            -4.8776698112487793e-01 1.8259195983409882e-01</leafValues></_>
        <_>
          <internalNodes>
            0 -1 107 731771467 329015984 353563256 1606201828 1936738536
            939368619 -339562524 905936895</internalNodes>
          <leafValues>
            -3.0066746473312378e-01 3.0931773781776428e-01</leafValues></_>
        <_>
          <internalNodes>
            0 -1 45 1476388863 -1082344993 -1152852774 -440648264
            1972946170 -638002955 -75211814 1282899830</internalNodes>
          <leafValues>
            -3.4113442897796631e-01 2.6066231727600098e-01</leafValues></_>
        <_>
          <internalNodes>
            0 -1 143 972386487 -1764167855 -75636739 -1476463659
            1794907100 1946018233 1036582768 -1090715788</internalNodes>
          <leafValues>
            -4.8912769556045532e-01 1.7706553637981415e-01</leafValues></_>
        <_>
          <internalNodes>
            0 -1 152 1505034372 -1089431832 -71573516 -1078397980
            -217162792 -350372928 1522859518 157776850</internalNodes>
          <leafValues>
            -3.9699888229370117e-01 2.3112808167934418e-01</leafValues></_>
        <_>
          <internalNodes>
            0 -1 148 -1083135487 -637830691 905870303 -583073798
            -729959799 -1074282505 -1094781793 -54552812</internalNodes>
          <leafValues>
            -2.6856848597526550e-01 3.3696594834327698e-01</leafValues></_>
        <_>
          <internalNodes>
            0 -1 90 1241575217 399411444 -751246408 -197772 1514477869
            1538173934 -1090618520 653745143</internalNodes>
          <leafValues>
            -3.5940283536911011e-01 2.5234723091125488e-01</leafValues></_>
        <_>
          <internalNodes>
            0 -1 19 -419515153 -1615425300 807061246 -34177290
            1778932473 1325272010 -90306465 1123929943</internalNodes>
          <leafValues>
            -3.5534092783927917e-01 2.4818156659603119e-01</leafValues></_>
        <_>
          <internalNodes>
            0 -1 61 1055911839 -1642758147 -269418510 -2130218
            1551654648 1601503100 -1091674178 2129657727</internalNodes>
          <leafValues>
            -2.1804425120353699e-01 3.8627141714096069e-01</leafValues></_>
        <_>
          <internalNodes>
            0 -1 51 -1062678789 2024586216 2146395905 1374782706
            -1093664769 -1207959555 770131819 -504072346</internalNodes>
          <leafValues>
            -2.7041950821876526e-01 3.1261879205703735e-01</leafValues></_>
        <_>
          <internalNodes>
            0 -1 46 -354525987 1064367358 -98673538 -88286218 1442075716
            1580294407 -9127744 -227247788</internalNodes>
          <leafValues>
            -5.3267377614974976e-01 1.6100989282131195e-01</leafValues></_>
        <_>
          <internalNodes>
            0 -1 12 -960237949 114213602 -375427062 2008843120
            1492024265 1735902126 -779865165 282113508</internalNodes>
          <leafValues>
            -5.1479125022888184e-01 1.5598092973232269e-01</leafValues></_>
        <_>
          <internalNodes>
            0 -1 194 1737993204 -1078267496 -1546922760 899467644
            -71401483 -1620259861 -83912519 149690840</internalNodes>
          <leafValues>
            -5.6274342536926270e-01 1.3853183388710022e-01</leafValues></_></weakClassifiers></_>
    <!-- stage 11 -->
    <_>
      <maxWeakCount>24</maxWeakCount>
      <stageThreshold>-2.3975021839141846e+00</stageThreshold>
      <weakClassifiers>
        <_>
          <internalNodes>
            0 -1 184 -9697 -2102785 -783034401 -561 -67131461 -102765601
            -33837409 -33</internalNodes>
          <leafValues>
            -8.0145913362503052e-01 -2.1342177689075470e-01</leafValues></_>
        <_>
          <internalNodes>
            0 -1 183 -1207963145 -1137829638 -305048065 -1929456163
            -1345586177 -1359042835 -1073742085 -1929380353</internalNodes>
          <leafValues>
            -5.0892931222915649e-01 1.8974372744560242e-01</leafValues></_>
        <_>
          <internalNodes>
            0 -1 68 -725983235 -536988193 1572578031 -206406721
            -165643268 -22315409 -1181589720 -13467789</internalNodes>
          <leafValues>
            -3.9587071537971497e-01 2.7238029241561890e-01</leafValues></_>
        <_>
          <internalNodes>
            0 -1 85 1417937024 -134251289 899710455 1037422571 -67641874
            -68452869 886407167 938441717</internalNodes>
          <leafValues>
            -4.7124311327934265e-01 2.0607511699199677e-01</leafValues></_>
        <_>
          <internalNodes>
            0 -1 120 954535895 -1112735756 -1180486 -21168132 2146717652
            2132598782 1877761898 931348319</internalNodes>
          <leafValues>
            -2.8691524267196655e-01 3.2155090570449829e-01</leafValues></_>
        <_>
          <internalNodes>
            0 -1 111 -513 773373948 -16863265 -1077989636 1610358084
            501021948 2147360762 1862270975</internalNodes>
          <leafValues>
            -2.3757666349411011e-01 3.8275918364524841e-01</leafValues></_>
        <_>
          <internalNodes>
            0 -1 28 -671092023 -478257153 -690170162 -85139458
            1874464812 1446857248 -126557196 -227213964</internalNodes>
          <leafValues>
            -4.6983140707015991e-01 2.0359033346176147e-01</leafValues></_>
        <_>
          <internalNodes>
            0 -1 32 -878331719 -605771542 -1250493707 -235180816
            1063514523 -1073889283 2004314110 -1952018690</internalNodes>
          <leafValues>
            -2.3867025971412659e-01 3.6008307337760925e-01</leafValues></_>
        <_>
          <internalNodes>
            0 -1 178 -350267408 984146392 -79145058 -570464020
            -1180455947 -1130501155 -1963255300 -1917846276</internalNodes>
          <leafValues>
            -3.0287915468215942e-01 2.7999132871627808e-01</leafValues></_>
        <_>
          <internalNodes>
            0 -1 59 -17825861 530513831 -50528258 2146397916 -547495938
            535625726 2126446587 1039138815</internalNodes>
          <leafValues>
            -2.2865742444992065e-01 3.6326661705970764e-01</leafValues></_>
        <_>
          <internalNodes>
            0 -1 156 -8913069 -1611598956 330479857 -272698920 536116085
            2074741163 -122063000 -285278476</internalNodes>
          <leafValues>
            -3.9120748639106750e-01 2.1869426965713501e-01</leafValues></_>
        <_>
          <internalNodes>
            0 -1 165 1470827294 -375396481 -209521898 -5528736
            1568136940 -1229225073 -550175778 -1619935242</internalNodes>
          <leafValues>
            -2.8548371791839600e-01 2.8162586688995361e-01</leafValues></_>
        <_>
          <internalNodes>
            0 -1 60 127857613 788447482 -635806594 -59851858 2116315644
            -341591673 -84379036 -231411920</internalNodes>
          <leafValues>
            -5.5878996849060059e-01 1.3904280960559845e-01</leafValues></_>
        <_>
          <internalNodes>
            0 -1 52 1514569870 -1179243856 -1291153 1979150104
            -1812096386 -1728366162 929249245 1978617518</internalNodes>
          <leafValues>
            -3.2983759045600891e-01 2.3730340600013733e-01</leafValues></_>
        <_>
          <internalNodes>
            0 -1 88 1133356735 2142175204 1828519212 1073539942
            2105423854 2146959358 2147250174 1052733311</internalNodes>
          <leafValues>
            -2.7217522263526917e-01 3.0151885747909546e-01</leafValues></_>
        <_>
          <internalNodes>
            0 -1 103 509140727 653980406 -67903561 -825467908 1505583903
            -71310594 -676500620 -352518288</internalNodes>
          <leafValues>
            -4.6033027768135071e-01 1.7909048497676849e-01</leafValues></_>
        <_>
          <internalNodes>
            0 -1 123 1073512319 -1620312656 -524672 229375216 2137882364
            1551760892 -18420098 2138570727</internalNodes>
          <leafValues>
            -2.7332076430320740e-01 3.0456578731536865e-01</leafValues></_>
        <_>
          <internalNodes>
            0 -1 40 -1702062403 226681466 1745505388 2113798108
            1135102394 329872254 1004362077 1686077279</internalNodes>
          <leafValues>
            -3.0920001864433289e-01 2.6368895173072815e-01</leafValues></_>
        <_>
          <internalNodes>
            0 -1 113 935165439 733804540 -682896937 787282942 -230636
            -207809847 -460492 1006532724</internalNodes>
          <leafValues>
            -4.8592516779899597e-01 1.5437605977058411e-01</leafValues></_>
        <_>
          <internalNodes>
            0 -1 116 1834817271 665616265 -556204932 -318910232
            -21143788 2039534059 -84542372 -453510284</internalNodes>
          <leafValues>
            -3.6345538496971130e-01 1.9886001944541931e-01</leafValues></_>
        <_>
          <internalNodes>
            0 -1 65 1459273663 -46373896 -917988884 -1879912488
            -613131916 1542478270 -1681719982 2128051792</internalNodes>
          <leafValues>
            -3.7422370910644531e-01 2.0032034814357758e-01</leafValues></_>
        <_>
          <internalNodes>
            0 -1 23 1719560191 1036318317 -1831677730 -2818050
            1489111222 232014704 -91993378 2054642702</internalNodes>
          <leafValues>
            -3.2744318246841431e-01 2.3442158102989197e-01</leafValues></_>
        <_>
          <internalNodes>
            0 -1 10 1860759290 -55645486 1498948318 268263312 -828882434
            -332870 2126020477 2096978880</internalNodes>
          <leafValues>
            -3.5772502422332764e-01 2.2086358070373535e-01</leafValues></_>
        <_>
          <internalNodes>
            0 -1 8 -247493686 -366837080 114895120 1475148754 1555759022
            -1283053335 -1991204201 -531761984</internalNodes>
          <leafValues>
            -3.1549033522605896e-01 2.3539274930953979e-01</leafValues></_></weakClassifiers></_>
    <!-- stage 12 -->
    <_>
      <maxWeakCount>24</maxWeakCount>
      <stageThreshold>-2.3875021934509277e+00</stageThreshold>
      <weakClassifiers>
        <_>
          <internalNodes>
            0 -1 33 -402464769 -73574988 -1613113859 2077692415
            1097858047 -1074072577 -15090689 -1345</internalNodes>
          <leafValues>
            -8.2274293899536133e-01 -3.5745722055435181e-01</leafValues></_>
        <_>
          <internalNodes>
            0 -1 192 -8651375 866768659 2145116064 -302011448 -70254619
            264384635 -25167904 -134222929</internalNodes>
          <leafValues>
            -5.1481837034225464e-01 1.5975269675254822e-01</leafValues></_>
        <_>
          <internalNodes>
            0 -1 127 -547750657 1060175788 1874132876 -1073758212
            -106532 2147442687 -605233234 671088510</internalNodes>
          <leafValues>
            -3.1271854043006897e-01 3.3670774102210999e-01</leafValues></_>
        <_>
          <internalNodes>
            0 -1 196 -1330119209 -1413816775 -1860255820 -1360242945
            -1781815627 -1392942610 -85475329 -1929576961</internalNodes>
          <leafValues>
            -3.6290690302848816e-01 2.5612711906433105e-01</leafValues></_>
        <_>
          <internalNodes>
            0 -1 149 -1109580800 -34097223 -1139097829 -1078725839
            -1074331444 -33555782 616722350 938966415</internalNodes>
          <leafValues>
            -4.1989186406135559e-01 2.4071083962917328e-01</leafValues></_>
        <_>
          <internalNodes>
            0 -1 132 -2015507273 1063058136 -921380614 -1078199436
            2018262008 1073588989 1004960636 619675255</internalNodes>
          <leafValues>
            -3.4307581186294556e-01 2.4914306402206421e-01</leafValues></_>
        <_>
          <internalNodes>
            0 -1 43 -1343246593 -604078082 -1646788 -33562632 1591500284
            1593606014 2130378686 1300226014</internalNodes>
          <leafValues>
            -2.4559848010540009e-01 3.2819083333015442e-01</leafValues></_>
        <_>
          <internalNodes>
            0 -1 78 1610579711 -1076176386 -606342274 -16846338
            -79799592 -80596085 -1074078884 -85795978</internalNodes>
          <leafValues>
            -3.4061348438262939e-01 2.3486620187759399e-01</leafValues></_>
        <_>
          <internalNodes>
            0 -1 138 -539537665 2083323132 -70147 -1074914180 502619636
            410288127 788463612 1979711231</internalNodes>
          <leafValues>
            -2.3178446292877197e-01 3.3697274327278137e-01</leafValues></_>
        <_>
          <internalNodes>
            0 -1 16 -824447261 -22347794 1862135396 -605489200
            1845381103 -839548929 -1208066593 -212762633</internalNodes>
          <leafValues>
            -2.5062260031700134e-01 3.1079220771789551e-01</leafValues></_>
        <_>
          <internalNodes>
            0 -1 173 -2097403 496161584 -1725999160 -843295048
            -1443529840 223641524 -100926500 86245296</internalNodes>
          <leafValues>
            -4.3819764256477356e-01 1.7701332271099091e-01</leafValues></_>
        <_>
          <internalNodes>
            0 -1 73 -2026953295 1068686078 268718492 -539372548
            1497919995 1557947320 -29729926 2128043518</internalNodes>
          <leafValues>
            -2.7375769615173340e-01 2.7614551782608032e-01</leafValues></_>
        <_>
          <internalNodes>
            0 -1 102 373083297 -1082851330 -812204004 -1610688580
            1509448572 2025171387 -67211522 637498230</internalNodes>
          <leafValues>
            -3.5743016004562378e-01 2.2753782570362091e-01</leafValues></_>
        <_>
          <internalNodes>
            0 -1 27 1056619995 1052573694 -1078267972 -268697602
            -42017296 1278540917 -13607076 -78389385</internalNodes>
          <leafValues>
            -2.3211213946342468e-01 3.2265716791152954e-01</leafValues></_>
        <_>
          <internalNodes>
            0 -1 161 535967196 -1464282760 1493653758 -1344473604
            1653245 958057387 190802045 -1930777380</internalNodes>
          <leafValues>
            -4.4495764374732971e-01 1.7017820477485657e-01</leafValues></_>
        <_>
          <internalNodes>
            0 -1 186 -676866294 2102870286 114379126 1398097209
            -57745912 -233603025 -1296176904 1465154392</internalNodes>
          <leafValues>
            -3.4901005029678345e-01 2.1151940524578094e-01</leafValues></_>
        <_>
          <internalNodes>
            0 -1 98 1039613819 -632000044 -937556034 -288701772
            2131525552 1519677612 999725948 1056907186</internalNodes>
          <leafValues>
            -3.3340445160865784e-01 2.1439883112907410e-01</leafValues></_>
        <_>
          <internalNodes>
            0 -1 110 1016487859 1024508092 1901221004 -1355893772
            1498429920 461155256 -1161946276 613687156</internalNodes>
          <leafValues>
            -7.8244066238403320e-01 8.8097870349884033e-02</leafValues></_>
        <_>
          <internalNodes>
            0 -1 76 -1617434001 796425917 -17891592 -541360522
            1551785468 1828519924 -1224802338 2147449727</internalNodes>
          <leafValues>
            -2.2117161750793457e-01 3.5215011239051819e-01</leafValues></_>
        <_>
          <internalNodes>
            0 -1 64 -134295813 1517601495 -644998786 -1157958810
            -626373424 2107253351 -2434236 -76383644</internalNodes>
          <leafValues>
            -4.0134608745574951e-01 1.8996246159076691e-01</leafValues></_>
        <_>
          <internalNodes>
            0 -1 38 2062331615 -1249726722 1006528308 1743597394 -99585
            -285278210 2097106396 2139062103</internalNodes>
          <leafValues>
            -2.6904162764549255e-01 2.7703341841697693e-01</leafValues></_>
        <_>
          <internalNodes>
            0 -1 177 1743723327 1029236144 -1995185164 -1349930560
            1235910312 498830415 -551305220 -193019212</internalNodes>
          <leafValues>
            -3.4109452366828918e-01 2.0733609795570374e-01</leafValues></_>
        <_>
          <internalNodes>
            0 -1 50 813861442 736880619 -456155667 1374969810
            -2047918337 -1075842822 2043369404 1861842804</internalNodes>
          <leafValues>
            -4.3336114287376404e-01 1.6467899084091187e-01</leafValues></_>
        <_>
          <internalNodes>
            0 -1 71 4239075 -1240945232 -111355281 -134250650 986454181
            1072279707 2017360892 1861710655</internalNodes>
          <leafValues>
            -3.3717003464698792e-01 2.1365059912204742e-01</leafValues></_></weakClassifiers></_>
    <!-- stage 13 -->
    <_>
      <maxWeakCount>23</maxWeakCount>
      <stageThreshold>-2.4762575626373291e+00</stageThreshold>
      <weakClassifiers>
        <_>
          <internalNodes>
            0 -1 48 -2098177 -67118083 -1856973057 -2891777 -352339201
            -76132737 -14385281 -9207937</internalNodes>
          <leafValues>
            -8.1221336126327515e-01 -3.0077889561653137e-01</leafValues></_>
        <_>
          <internalNodes>
            0 -1 100 -798908254 -76939789 9703805 1975856639 -1172705049
            -72359286 2102475743 784272815</internalNodes>
          <leafValues>
            -5.2454829216003418e-01 1.2208291888237000e-01</leafValues></_>
        <_>
          <internalNodes>
            0 -1 131 -210378049 2136275964 -2011380782 -1078207632
            1535073276 2065693436 -3253398 636485495</internalNodes>
          <leafValues>
            -3.3202904462814331e-01 3.0449399352073669e-01</leafValues></_>
        <_>
          <internalNodes>
            0 -1 4 -358446869 -541086104 -906113793 -39105283 -541720577
            -19435521 -570653441 -128980273</internalNodes>
          <leafValues>
            -2.6734623312950134e-01 3.2353973388671875e-01</leafValues></_>
        <_>
          <internalNodes>
            0 -1 128 2071963357 -1107692292 -4326595 -290166228
            1609321468 -71812613 -4424836 -285410444</internalNodes>
          <leafValues>
            -3.5174137353897095e-01 2.3509125411510468e-01</leafValues></_>
        <_>
          <internalNodes>
            0 -1 56 2124188084 -1628534178 532942635 1068305963
            -1415368775 1062020031 1878908558 1603241886</internalNodes>
          <leafValues>
            -2.8061115741729736e-01 2.9930266737937927e-01</leafValues></_>
        <_>
          <internalNodes>
            0 -1 181 1467350200 427878648 338453940 -1073896536
            -67167572 -319856236 -1293619348 888668151</internalNodes>
          <leafValues>
            -3.1080695986747742e-01 2.5387999415397644e-01</leafValues></_>
        <_>
          <internalNodes>
            0 -1 20 -1361122641 -44139108 -2029460610 -3146754 161405951
            -68392340 1000087290 1551225086</internalNodes>
          <leafValues>
            -2.8304597735404968e-01 2.6799634099006653e-01</leafValues></_>
        <_>
          <internalNodes>
            0 -1 63 1039794111 -805535747 -269107216 -134217794
            1560042964 1576828286 -1074373126 2130698079</internalNodes>
          <leafValues>
            -1.9600512087345123e-01 3.6803627014160156e-01</leafValues></_>
        <_>
          <internalNodes>
            0 -1 96 1591704297 855175549 -483283201 -2428051 -88319172
            -9821733 -460180 -93913104</internalNodes>
          <leafValues>
            -3.5957258939743042e-01 2.1764729917049408e-01</leafValues></_>
        <_>
          <internalNodes>
            0 -1 67 -83013 -606153738 1329112912 1272731094 1804496862
            1115952120 -16757794 1408688122</internalNodes>
          <leafValues>
            -3.4657496213912964e-01 2.0552012324333191e-01</leafValues></_>
        <_>
          <internalNodes>
            0 -1 69 -1439561677 -69791642 -1077437476 1606272472
            -1983205635 1244311769 -834947108 -1753965691</internalNodes>
          <leafValues>
            -3.4213498234748840e-01 2.0296397805213928e-01</leafValues></_>
        <_>
          <internalNodes>
            0 -1 87 1048949243 1052563950 1588492956 -269680924
            1404848732 871729337 2141486704 -254543018</internalNodes>
          <leafValues>
            -3.2406210899353027e-01 2.3037216067314148e-01</leafValues></_>
        <_>
          <internalNodes>
            0 -1 41 883647657 449770126 881337072 1185114750 -1173423314
            -2192498 -72434769 1296547738</internalNodes>
          <leafValues>
            -3.0855059623718262e-01 2.2431537508964539e-01</leafValues></_>
        <_>
          <internalNodes>
            0 -1 97 1935272885 -14364492 -312583024 1793857002
            -1726461031 1524140348 -574836104 855638006</internalNodes>
          <leafValues>
            -4.3251335620880127e-01 1.7302732169628143e-01</leafValues></_>
        <_>
          <internalNodes>
            0 -1 176 -103317424 -536903809 -1547743363 2071887753
            -346895120 -92441097 -210314515 -496485381</internalNodes>
          <leafValues>
            -2.2808408737182617e-01 3.0765098333358765e-01</leafValues></_>
        <_>
          <internalNodes>
            0 -1 170 1329560081 2142305137 -593511632 -1080254979
            1395809028 -8643660 -50922178 1919414006</internalNodes>
          <leafValues>
            -3.2759472727775574e-01 2.1881772577762604e-01</leafValues></_>
        <_>
          <internalNodes>
            0 -1 153 -1623195903 389665940 -816165856 -1382230562
            -67118400 1741506991 279904244 1693825916</internalNodes>
          <leafValues>
            -4.1342815756797791e-01 1.6760137677192688e-01</leafValues></_>
        <_>
          <internalNodes>
            0 -1 42 516341683 356450040 -285417924 -1073745936
            -134455819 -545259530 -632833 1073209215</internalNodes>
          <leafValues>
            -2.3510238528251648e-01 3.0131456255912781e-01</leafValues></_>
        <_>
          <internalNodes>
            0 -1 121 518812393 -1363348772 -1821977379 239915740
            1606253173 -1086545225 -25420716 653590516</internalNodes>
          <leafValues>
            -6.4554262161254883e-01 1.1224562674760818e-01</leafValues></_>
        <_>
          <internalNodes>
            0 -1 57 286263456 -337821446 -1708390011 1272961981
            -507829564 -564324112 2131649467 1599576986</internalNodes>
          <leafValues>
            -2.8830125927925110e-01 2.6759231090545654e-01</leafValues></_>
        <_>
          <internalNodes>
            0 -1 159 996096683 850579704 322115316 -846244756 2130394068
            1596054217 -209060 544667478</internalNodes>
          <leafValues>
            -3.9321279525756836e-01 1.8487998843193054e-01</leafValues></_>
        <_>
          <internalNodes>
            0 -1 142 393809713 -1363228715 -266022402 -1363479074
            -79464076 -108404338 2034260596 989657396</internalNodes>
          <leafValues>
            -6.0315024852752686e-01 1.1375349014997482e-01</leafValues></_></weakClassifiers></_></stages>
  <features>
    <_>
      <rect>
        0 0 2 2</rect></_>
    <_>
      <rect>
        0 0 3 2</rect></_>
    <_>
      <rect>
        0 0 3 3</rect></_>
    <_>
      <rect>
        0 0 4 1</rect></_>
    <_>
      <rect>
        0 1 1 3</rect></_>
    <_>
      <rect>
        0 1 3 5</rect></_>
    <_>
      <rect>
        0 2 2 2</rect></_>
    <_>
      <rect>
        0 2 3 4</rect></_>
    <_>
      <rect>
        0 3 1 1</rect></_>
    <_>
      <rect>
        0 3 1 2</rect></_>
    <_>
      <rect>
        0 3 2 2</rect></_>
    <_>
      <rect>
        0 3 3 3</rect></_>
    <_>
      <rect>
        0 4 1 1</rect></_>
    <_>
      <rect>
        0 4 2 3</rect></_>
    <_>
      <rect>
        0 5 3 2</rect></_>
    <_>
      <rect>
        0 5 4 3</rect></_>
    <_>
      <rect>
        0 6 1 1</rect></_>
    <_>
      <rect>
        0 6 1 3</rect></_>
    <_>
      <rect>
        0 6 2 1</rect></_>
    <_>
      <rect>
        0 6 2 2</rect></_>
    <_>
      <rect>
        0 6 2 3</rect></_>
    <_>
      <rect>
        0 7 2 1</rect></_>
    <_>
      <rect>
        0 8 1 1</rect></_>
    <_>
      <rect>
        0 8 2 2</rect></_>
    <_>
      <rect>
        0 8 3 2</rect></_>
    <_>
      <rect>
        0 9 3 1</rect></_>
    <_>
      <rect>
        0 10 1 2</rect></_>
    <_>
      <rect>
        0 10 2 2</rect></_>
    <_>
      <rect>
        0 11 1 1</rect></_>
    <_>
      <rect>
        0 13 1 1</rect></_>
    <_>
      <rect>
        0 13 2 1</rect></_>
    <_>
      <rect>
        0 13 3 1</rect></_>
    <_>
      <rect>
        1 0 2 1</rect></_>
    <_>
      <rect>
        1 0 3 1</rect></_>
    <_>
      <rect>
        1 0 5 2</rect></_>
    <_>
      <rect>
        1 0 5 3</rect></_>
    <_>
      <rect>
        1 0 5 4</rect></_>
    <_>
      <rect>
        1 1 3 3</rect></_>
    <_>
      <rect>
        1 2 2 2</rect></_>
    <_>
      <rect>
        1 3 3 3</rect></_>
    <_>
      <rect>
        1 4 2 2</rect></_>
    <_>
      <rect>
        1 4 3 3</rect></_>
    <_>
      <rect>
        1 5 2 2</rect></_>
    <_>
      <rect>
        1 5 2 3</rect></_>
    <_>
      <rect>
        1 8 3 2</rect></_>
    <_>
      <rect>
        1 9 2 2</rect></_>
    <_>
      <rect>
        1 10 1 1</rect></_>
    <_>
      <rect>
        1 12 1 1</rect></_>
    <_>
      <rect>
        1 13 2 1</rect></_>
    <_>
      <rect>
        2 0 2 1</rect></_>
    <_>
      <rect>
        2 0 3 2</rect></_>
    <_>
      <rect>
        2 1 2 1</rect></_>
    <_>
      <rect>
        2 1 2 2</rect></_>
    <_>
      <rect>
        2 1 4 2</rect></_>
    <_>
      <rect>
        2 2 2 2</rect></_>
    <_>
      <rect>
        2 3 3 4</rect></_>
    <_>
      <rect>
        2 3 4 2</rect></_>
    <_>
      <rect>
        2 4 4 3</rect></_>
    <_>
      <rect>
        2 5 3 3</rect></_>
    <_>
      <rect>
        2 6 3 2</rect></_>
    <_>
      <rect>
        2 7 1 1</rect></_>
    <_>
      <rect>
        2 8 2 2</rect></_>
    <_>
      <rect>
        2 8 4 2</rect></_>
    <_>
      <rect>
        2 9 2 2</rect></_>
    <_>
      <rect>
        2 10 1 1</rect></_>
    <_>
      <rect>
        2 10 2 2</rect></_>
    <_>
      <rect>
        2 12 1 1</rect></_>
    <_>
      <rect>
        2 12 3 1</rect></_>
    <_>
      <rect>
        2 13 1 1</rect></_>
    <_>
      <rect>
        3 0 1 1</rect></_>
    <_>
      <rect>
        3 0 2 1</rect></_>
    <_>
      <rect>
        3 2 2 2</rect></_>
    <_>
      <rect>
        3 3 2 2</rect></_>
    <_>
      <rect>
        3 3 2 3</rect></_>
    <_>
      <rect>
        3 6 1 1</rect></_>
    <_>
      <rect>
        3 7 1 1</rect></_>
    <_>
      <rect>
        3 7 2 2</rect></_>
    <_>
      <rect>
        3 8 3 2</rect></_>
    <_>
      <rect>
        3 9 1 1</rect></_>
    <_>
      <rect>
        3 9 2 2</rect></_>
    <_>
      <rect>
        3 10 2 2</rect></_>
    <_>
      <rect>
        3 12 1 1</rect></_>
    <_>
      <rect>
        3 13 1 1</rect></_>
    <_>
      <rect>
        3 13 4 1</rect></_>
    <_>
      <rect>
        4 0 1 1</rect></_>
    <_>
      <rect>
        4 0 3 2</rect></_>
    <_>
      <rect>
        4 0 4 5</rect></_>
    <_>
      <rect>
        4 3 2 1</rect></_>
    <_>
      <rect>
        4 3 2 2</rect></_>
    <_>
      <rect>
        4 3 3 2</rect></_>
    <_>
      <rect>
        4 4 2 2</rect></_>
    <_>
      <rect>
        4 6 1 1</rect></_>
    <_>
      <rect>
        4 7 3 2</rect></_>
    <_>
      <rect>
        4 8 1 1</rect></_>
    <_>
      <rect>
        4 8 3 2</rect></_>
    <_>
      <rect>
        4 8 4 2</rect></_>
    <_>
      <rect>
        4 9 1 1</rect></_>
    <_>
      <rect>
        4 9 3 1</rect></_>
    <_>
      <rect>
        4 10 2 2</rect></_>
    <_>
      <rect>
        4 13 1 1</rect></_>
    <_>
      <rect>
        5 0 2 1</rect></_>
    <_>
      <rect>
        5 0 3 2</rect></_>
    <_>
      <rect>
        5 4 2 2</rect></_>
    <_>
      <rect>
        5 5 1 1</rect></_>
    <_>
      <rect>
        5 5 2 2</rect></_>
    <_>
      <rect>
        5 5 3 3</rect></_>
    <_>
      <rect>
        5 6 2 2</rect></_>
    <_>
      <rect>
        5 6 2 3</rect></_>
    <_>
      <rect>
        5 6 3 2</rect></_>
    <_>
      <rect>
        5 7 1 1</rect></_>
    <_>
      <rect>
        5 7 2 2</rect></_>
    <_>
      <rect>
        5 9 2 2</rect></_>
    <_>
      <rect>
        5 10 2 2</rect></_>
    <_>
      <rect>
        5 11 1 1</rect></_>
    <_>
      <rect>
        6 0 3 1</rect></_>
    <_>
      <rect>
        6 1 3 3</rect></_>
    <_>
      <rect>
        6 3 2 1</rect></_>
    <_>
      <rect>
        6 3 3 2</rect></_>
    <_>
      <rect>
        6 4 1 1</rect></_>
    <_>
      <rect>
        6 4 2 2</rect></_>
    <_>
      <rect>
        6 4 2 3</rect></_>
    <_>
      <rect>
        6 6 1 1</rect></_>
    <_>
      <rect>
        6 8 1 1</rect></_>
    <_>
      <rect>
        6 8 3 2</rect></_>
    <_>
      <rect>
        6 13 2 1</rect></_>
    <_>
      <rect>
        7 0 3 1</rect></_>
    <_>
      <rect>
        7 2 3 3</rect></_>
    <_>
      <rect>
        7 3 2 2</rect></_>
    <_>
      <rect>
        7 4 1 1</rect></_>
    <_>
      <rect>
        7 4 2 3</rect></_>
    <_>
      <rect>
        7 5 1 1</rect></_>
    <_>
      <rect>
        7 5 2 2</rect></_>
    <_>
      <rect>
        7 6 2 2</rect></_>
    <_>
      <rect>
        7 6 3 2</rect></_>
    <_>
      <rect>
        7 7 3 2</rect></_>
    <_>
      <rect>
        7 7 3 3</rect></_>
    <_>
      <rect>
        7 8 1 1</rect></_>
    <_>
      <rect>
        7 9 3 2</rect></_>
    <_>
      <rect>
        7 10 2 2</rect></_>
    <_>
      <rect>
        7 11 2 1</rect></_>
    <_>
      <rect>
        7 12 1 1</rect></_>
    <_>
      <rect>
        8 0 2 1</rect></_>
    <_>
      <rect>
        8 6 1 1</rect></_>
    <_>
      <rect>
        8 7 1 1</rect></_>
    <_>
      <rect>
        8 8 1 1</rect></_>
    <_>
      <rect>
        8 11 1 1</rect></_>
    <_>
      <rect>
        8 13 1 1</rect></_>
    <_>
      <rect>
        9 0 1 1</rect></_>
    <_>
      <rect>
        9 0 2 1</rect></_>
    <_>
      <rect>
        9 1 2 2</rect></_>
    <_>
      <rect>
        9 2 2 2</rect></_>
    <_>
      <rect>
        9 4 2 2</rect></_>
    <_>
      <rect>
        9 4 2 3</rect></_>
    <_>
      <rect>
        9 5 2 1</rect></_>
    <_>
      <rect>
        9 6 1 1</rect></_>
    <_>
      <rect>
        9 7 1 1</rect></_>
    <_>
      <rect>
        9 8 1 1</rect></_>
    <_>
      <rect>
        9 8 2 2</rect></_>
    <_>
      <rect>
        9 9 1 1</rect></_>
    <_>
      <rect>
        9 9 2 2</rect></_>
    <_>
      <rect>
        9 10 1 1</rect></_>
    <_>
      <rect>
        9 12 1 1</rect></_>
    <_>
      <rect>
        9 13 1 1</rect></_>
    <_>
      <rect>
        9 13 2 1</rect></_>
    <_>
      <rect>
        10 0 2 2</rect></_>
    <_>
      <rect>
        10 0 2 5</rect></_>
    <_>
      <rect>
        10 1 2 1</rect></_>
    <_>
      <rect>
        10 1 2 3</rect></_>
    <_>
      <rect>
        10 4 2 3</rect></_>
    <_>
      <rect>
        10 5 1 1</rect></_>
    <_>
      <rect>
        10 5 2 2</rect></_>
    <_>
      <rect>
        10 6 1 1</rect></_>
    <_>
      <rect>
        10 7 1 1</rect></_>
    <_>
      <rect>
        10 8 2 2</rect></_>
    <_>
      <rect>
        10 13 1 1</rect></_>
    <_>
      <rect>
        10 13 2 1</rect></_>
    <_>
      <rect>
        11 1 1 1</rect></_>
    <_>
      <rect>
        11 7 1 1</rect></_>
    <_>
      <rect>
        11 12 1 1</rect></_>
    <_>
      <rect>
        12 0 1 2</rect></_>
    <_>
      <rect>
        12 3 1 1</rect></_>
    <_>
      <rect>
        12 4 1 2</rect></_>
    <_>
      <rect>
        12 12 1 1</rect></_>
    <_>
      <rect>
        12 13 1 1</rect></_>
    <_>
      <rect>
        13 1 1 2</rect></_>
    <_>
      <rect>
        13 2 1 2</rect></_>
    <_>
      <rect>
        13 3 1 1</rect></_>
    <_>
      <rect>
        13 3 1 2</rect></_>
    <_>
      <rect>
        13 4 1 1</rect></_>
    <_>
      <rect>
        13 5 1 3</rect></_>
    <_>
      <rect>
        13 6 1 1</rect></_>
    <_>
      <rect>
        13 7 1 1</rect></_>
    <_>
      <rect>
        13 8 1 1</rect></_>
    <_>
      <rect>
        13 9 1 1</rect></_>
    <_>
      <rect>
        13 10 1 2</rect></_>
    <_>
      <rect>
        13 12 1 1</rect></_>
    <_>
      <rect>
        13 13 1 1</rect></_></features></cascade>
</opencv_storage>
