<?xml version="1.0"?>
<opencv_storage>
<stage13>
  <maxWeakCount>23</maxWeakCount>
  <stageThreshold>-2.4762575626373291e+00</stageThreshold>
  <weakClassifiers>
    <_>
      <internalNodes>
        0 -1 396 -2098177 -67118083 -1856973057 -2891777 -352339201
        -76132737 -14385281 -9207937</internalNodes>
      <leafValues>
        -8.1221336126327515e-01 -3.0077889561653137e-01</leafValues></_>
    <_>
      <internalNodes>
        0 -1 885 -798908254 -76939789 9703805 1975856639 -1172705049
        -72359286 2102475743 784272815</internalNodes>
      <leafValues>
        -5.2454829216003418e-01 1.2208291888237000e-01</leafValues></_>
    <_>
      <internalNodes>
        0 -1 1190 -210378049 2136275964 -2011380782 -1078207632
        1535073276 2065693436 -3253398 636485495</internalNodes>
      <leafValues>
        -3.3202904462814331e-01 3.0449399352073669e-01</leafValues></_>
    <_>
      <internalNodes>
        0 -1 27 -358446869 -541086104 -906113793 -39105283 -541720577
        -19435521 -570653441 -128980273</internalNodes>
      <leafValues>
        -2.6734623312950134e-01 3.2353973388671875e-01</leafValues></_>
    <_>
      <internalNodes>
        0 -1 1174 2071963357 -1107692292 -4326595 -290166228 1609321468
        -71812613 -4424836 -285410444</internalNodes>
      <leafValues>
        -3.5174137353897095e-01 2.3509125411510468e-01</leafValues></_>
    <_>
      <internalNodes>
        0 -1 469 2124188084 -1628534178 532942635 1068305963 -1415368775
        1062020031 1878908558 1603241886</internalNodes>
      <leafValues>
        -2.8061115741729736e-01 2.9930266737937927e-01</leafValues></_>
    <_>
      <internalNodes>
        0 -1 1539 1467350200 427878648 338453940 -1073896536 -67167572
        -319856236 -1293619348 888668151</internalNodes>
      <leafValues>
        -3.1080695986747742e-01 2.5387999415397644e-01</leafValues></_>
    <_>
      <internalNodes>
        0 -1 130 -1361122641 -44139108 -2029460610 -3146754 161405951
        -68392340 1000087290 1551225086</internalNodes>
      <leafValues>
        -2.8304597735404968e-01 2.6799634099006653e-01</leafValues></_>
    <_>
      <internalNodes>
        0 -1 535 1039794111 -805535747 -269107216 -134217794 1560042964
        1576828286 -1074373126 2130698079</internalNodes>
      <leafValues>
        -1.9600512087345123e-01 3.6803627014160156e-01</leafValues></_>
    <_>
      <internalNodes>
        0 -1 852 1591704297 855175549 -483283201 -2428051 -88319172
        -9821733 -460180 -93913104</internalNodes>
      <leafValues>
        -3.5957258939743042e-01 2.1764729917049408e-01</leafValues></_>
    <_>
      <internalNodes>
        0 -1 554 -83013 -606153738 1329112912 1272731094 1804496862
        1115952120 -16757794 1408688122</internalNodes>
      <leafValues>
        -3.4657496213912964e-01 2.0552012324333191e-01</leafValues></_>
    <_>
      <internalNodes>
        0 -1 560 -1439561677 -69791642 -1077437476 1606272472
        -1983205635 1244311769 -834947108 -1753965691</internalNodes>
      <leafValues>
        -3.4213498234748840e-01 2.0296397805213928e-01</leafValues></_>
    <_>
      <internalNodes>
        0 -1 780 1048949243 1052563950 1588492956 -269680924 1404848732
        871729337 2141486704 -254543018</internalNodes>
      <leafValues>
        -3.2406210899353027e-01 2.3037216067314148e-01</leafValues></_>
    <_>
      <internalNodes>
        0 -1 300 883647657 449770126 881337072 1185114750 -1173423314
        -2192498 -72434769 1296547738</internalNodes>
      <leafValues>
        -3.0855059623718262e-01 2.2431537508964539e-01</leafValues></_>
    <_>
      <internalNodes>
        0 -1 856 1935272885 -14364492 -312583024 1793857002 -1726461031
        1524140348 -574836104 855638006</internalNodes>
      <leafValues>
        -4.3251335620880127e-01 1.7302732169628143e-01</leafValues></_>
    <_>
      <internalNodes>
        0 -1 1485 -103317424 -536903809 -1547743363 2071887753
        -346895120 -92441097 -210314515 -496485381</internalNodes>
      <leafValues>
        -2.2808408737182617e-01 3.0765098333358765e-01</leafValues></_>
    <_>
      <internalNodes>
        0 -1 1448 1329560081 2142305137 -593511632 -1080254979
        1395809028 -8643660 -50922178 1919414006</internalNodes>
      <leafValues>
        -3.2759472727775574e-01 2.1881772577762604e-01</leafValues></_>
    <_>
      <internalNodes>
        0 -1 1367 -1623195903 389665940 -816165856 -1382230562 -67118400
        1741506991 279904244 1693825916</internalNodes>
      <leafValues>
        -4.1342815756797791e-01 1.6760137677192688e-01</leafValues></_>
    <_>
      <internalNodes>
        0 -1 314 516341683 356450040 -285417924 -1073745936 -134455819
        -545259530 -632833 1073209215</internalNodes>
      <leafValues>
        -2.3510238528251648e-01 3.0131456255912781e-01</leafValues></_>
    <_>
      <internalNodes>
        0 -1 1075 518812393 -1363348772 -1821977379 239915740 1606253173
        -1086545225 -25420716 653590516</internalNodes>
      <leafValues>
        -6.4554262161254883e-01 1.1224562674760818e-01</leafValues></_>
    <_>
      <internalNodes>
        0 -1 486 286263456 -337821446 -1708390011 1272961981 -507829564
        -564324112 2131649467 1599576986</internalNodes>
      <leafValues>
        -2.8830125927925110e-01 2.6759231090545654e-01</leafValues></_>
    <_>
      <internalNodes>
        0 -1 1389 996096683 850579704 322115316 -846244756 2130394068
        1596054217 -209060 544667478</internalNodes>
      <leafValues>
        -3.9321279525756836e-01 1.8487998843193054e-01</leafValues></_>
    <_>
      <internalNodes>
        0 -1 1290 393809713 -1363228715 -266022402 -1363479074 -79464076
        -108404338 2034260596 989657396</internalNodes>
      <leafValues>
        -6.0315024852752686e-01 1.1375349014997482e-01</leafValues></_></weakClassifiers></stage13>
</opencv_storage>
