<?xml version="1.0"?>
<opencv_storage>
<stage4>
  <maxWeakCount>5</maxWeakCount>
  <stageThreshold>-2.2954118251800537e+00</stageThreshold>
  <weakClassifiers>
    <_>
      <internalNodes>
        0 -1 210 -286265345 -1 -8193 -1 -1 -1 -1 -1</internalNodes>
      <leafValues>
        -8.2534188032150269e-01 4.5936182141304016e-01</leafValues></_>
    <_>
      <internalNodes>
        0 -1 1386 -8388609 -1086783490 -1 -270729220 -229387 -3 -65552
        -16973836</internalNodes>
      <leafValues>
        -7.3735010623931885e-01 2.5429719686508179e-01</leafValues></_>
    <_>
      <internalNodes>
        0 -1 1084 -536871425 -1090715649 -129 -270598162 -32771 -137
        -197260 -285442188</internalNodes>
      <leafValues>
        -6.3022863864898682e-01 3.5702714323997498e-01</leafValues></_>
    <_>
      <internalNodes>
        0 -1 1131 -671123711 -16457 -1142423557 -32961 2143254300
        -4202497 1996433727 -4194449</internalNodes>
      <leafValues>
        -5.1021355390548706e-01 4.3715804815292358e-01</leafValues></_>
    <_>
      <internalNodes>
        0 -1 712 -536903681 2113732607 -1073807361 -67174401 -2859408
        -296961 -8617996 -26151052</internalNodes>
      <leafValues>
        -5.3913402557373047e-01 4.0772229433059692e-01</leafValues></_></weakClassifiers></stage4>
</opencv_storage>
