<?xml version="1.0"?>
<opencv_storage>
<stage6>
  <maxWeakCount>5</maxWeakCount>
  <stageThreshold>-2.3235535621643066e+00</stageThreshold>
  <weakClassifiers>
    <_>
      <internalNodes>
        0 -1 1578 -209 -1 -1074790417 -1 -252 -1409 -1025 -1</internalNodes>
      <leafValues>
        -8.4984725713729858e-01 1.2354487180709839e-01</leafValues></_>
    <_>
      <internalNodes>
        0 -1 23 -3228930 -3074 1246027740 -538970369 -1 -4472833
        -538968321 -538968065</internalNodes>
      <leafValues>
        -6.8991482257843018e-01 2.6701733469963074e-01</leafValues></_>
    <_>
      <internalNodes>
        0 -1 1479 -1107296257 238730813 -3 -1929445508 -1073872897
        -1912602625 -536871427 -1930625540</internalNodes>
      <leafValues>
        -5.4427725076675415e-01 3.9171597361564636e-01</leafValues></_>
    <_>
      <internalNodes>
        0 -1 1551 -399 -1078005850 -939524112 -286261508 -20747
        -16794129 -16779276 -453181484</internalNodes>
      <leafValues>
        -5.3212958574295044e-01 3.7025693058967590e-01</leafValues></_>
    <_>
      <internalNodes>
        0 -1 692 1577025471 -1342767106 -17301890 -352681988 2147245148
        -884741 -1074205348 -17531052</internalNodes>
      <leafValues>
        -5.9516125917434692e-01 2.9261529445648193e-01</leafValues></_></weakClassifiers></stage6>
</opencv_storage>
