<?xml version="1.0"?>
<opencv_storage>
<stage0>
  <maxWeakCount>5</maxWeakCount>
  <stageThreshold>-2.3382043838500977e+00</stageThreshold>
  <weakClassifiers>
    <_>
      <internalNodes>
        0 -1 39 -1 -65538 -65537 -196610 -1 -65537 -1 -1</internalNodes>
      <leafValues>
        -8.6011362075805664e-01 4.3002781271934509e-01</leafValues></_>
    <_>
      <internalNodes>
        0 -1 843 -1 -1 -65540 -36 -6 -66052 -66376 -58917132</internalNodes>
      <leafValues>
        -7.4797236919403076e-01 3.9108940958976746e-01</leafValues></_>
    <_>
      <internalNodes>
        0 -1 221 1873751850 -1 930034981 -16401 -16433 -1 1073709055
        -1048577</internalNodes>
      <leafValues>
        -6.0494589805603027e-01 4.7608438134193420e-01</leafValues></_>
    <_>
      <internalNodes>
        0 -1 1114 536690687 -212995 -1 -327684 -1073856548 -65537
        -245764 -16990252</internalNodes>
      <leafValues>
        -5.5542552471160889e-01 5.0829935073852539e-01</leafValues></_>
    <_>
      <internalNodes>
        0 -1 973 -262145 -1342406660 -1048577 -1364262916 1878945565 -1
        -536936844 -285933964</internalNodes>
      <leafValues>
        -6.2711334228515625e-01 4.3025302886962891e-01</leafValues></_></weakClassifiers></stage0>
</opencv_storage>
