<?xml version="1.0"?>
<opencv_storage>
<stage4>
  <maxWeakCount>11</maxWeakCount>
  <stageThreshold>-2.4818100929260254e+00</stageThreshold>
  <weakClassifiers>
    <_>
      <internalNodes>
        0 -1 210 -353374209 -1 -541073921 -8225 2013265919 -1285 -1 -1</internalNodes>
      <leafValues>
        -8.3321279287338257e-01 2.5095057487487793e-01</leafValues></_>
    <_>
      <internalNodes>
        0 -1 222 -149962870 -513 352329497 -193 -4210689 -77595169
        1342173103 -1</internalNodes>
      <leafValues>
        -6.6407167911529541e-01 3.2657533884048462e-01</leafValues></_>
    <_>
      <internalNodes>
        0 -1 1075 -21364993 -1359022369 -603980033 -822149160 -537101708
        -8393797 -17007756 -16973836</internalNodes>
      <leafValues>
        -5.8050763607025146e-01 2.8535097837448120e-01</leafValues></_>
    <_>
      <internalNodes>
        0 -1 1223 -205 1067447231 -603979856 -1213203792 -539231308
        2084567764 -2348 -134742026</internalNodes>
      <leafValues>
        -4.7972640395164490e-01 3.6644315719604492e-01</leafValues></_>
    <_>
      <internalNodes>
        0 -1 37 -1561415990 -993369362 1068290708 1336372466 1979703263
        1601108923 1056799423 1341089918</internalNodes>
      <leafValues>
        -5.3331065177917480e-01 3.1789642572402954e-01</leafValues></_>
    <_>
      <internalNodes>
        0 -1 1186 775892951 784121854 2130442751 -285414412 2128567677
        -1075053705 -1610817700 -352519180</internalNodes>
      <leafValues>
        -5.5448448657989502e-01 2.7508208155632019e-01</leafValues></_>
    <_>
      <internalNodes>
        0 -1 140 -285742337 -287146034 -285282592 -16859190 -1124118557
        -1258487809 -2633868 -134217961</internalNodes>
      <leafValues>
        -3.6831834912300110e-01 4.0995845198631287e-01</leafValues></_>
    <_>
      <internalNodes>
        0 -1 1239 2145910527 805223421 -604061764 -1912668162 1879048188
        -1526857731 -570559236 -1929380353</internalNodes>
      <leafValues>
        -3.6727169156074524e-01 3.9505153894424438e-01</leafValues></_>
    <_>
      <internalNodes>
        0 -1 1376 2146905585 -1342646284 1939602420 -1092814860
        -88440971 -1182789 1054637044 -16843788</internalNodes>
      <leafValues>
        -5.0922977924346924e-01 2.7992433309555054e-01</leafValues></_>
    <_>
      <internalNodes>
        0 -1 1060 1004916695 -1146816524 -552680262 -12651044 -4863020
        2132595437 -359899158 934764391</internalNodes>
      <leafValues>
        -3.7968620657920837e-01 3.8858762383460999e-01</leafValues></_>
    <_>
      <internalNodes>
        0 -1 6 -2004205407 -51200260 56038645 -557574 1003043534
        -1142459673 -167854082 -337117961</internalNodes>
      <leafValues>
        -3.7726166844367981e-01 3.8045087456703186e-01</leafValues></_></weakClassifiers></stage4>
</opencv_storage>
