<?xml version="1.0"?>
<opencv_storage>
<stage8>
  <maxWeakCount>17</maxWeakCount>
  <stageThreshold>-2.2951023578643799e+00</stageThreshold>
  <weakClassifiers>
    <_>
      <internalNodes>
        0 -1 196 -2049 -10241 -619521825 -8225 -290202117 -309173
        -72090753 -8913025</internalNodes>
      <leafValues>
        -8.0245411396026611e-01 -4.0214478969573975e-02</leafValues></_>
    <_>
      <internalNodes>
        0 -1 1039 -4197928 -8393537 -1081628788 -4337169 1610401672
        2079929337 547761546 2013228731</internalNodes>
      <leafValues>
        -6.1561977863311768e-01 1.7202194035053253e-01</leafValues></_>
    <_>
      <internalNodes>
        0 -1 76 -537462018 -542184456 -829012356 1307429620 -598964033
        -572594969 2144136190 1608474367</internalNodes>
      <leafValues>
        -3.7448552250862122e-01 3.5426503419876099e-01</leafValues></_>
    <_>
      <internalNodes>
        0 -1 1245 -987561979 -35685217 1373372127 -773096993 -1121324408
        -100963343 1009989819 -102542529</internalNodes>
      <leafValues>
        -3.4985911846160889e-01 3.4318527579307556e-01</leafValues></_>
    <_>
      <internalNodes>
        0 -1 959 2147220951 1068954621 -1044980948 938398676 1239178236
        2078012079 1659796860 620199799</internalNodes>
      <leafValues>
        -3.8017675280570984e-01 2.9641497135162354e-01</leafValues></_>
    <_>
      <internalNodes>
        0 -1 781 276604607 1073542629 1576992060 -1078072460 1497109484
        2142741230 -67211940 1056931662</internalNodes>
      <leafValues>
        -3.3653011918067932e-01 3.4523972868919373e-01</leafValues></_>
    <_>
      <internalNodes>
        0 -1 703 -10617345 1609628086 -1052102146 -268505228 -312189992
        498104564 -1363780136 938962938</internalNodes>
      <leafValues>
        -3.2936835289001465e-01 3.3351314067840576e-01</leafValues></_>
    <_>
      <internalNodes>
        0 -1 820 -553977093 -1661535234 -1172918534 -230404 1927961308
        -1153468341 -1644004 -17286188</internalNodes>
      <leafValues>
        -3.9438611268997192e-01 2.5784358382225037e-01</leafValues></_>
    <_>
      <internalNodes>
        0 -1 1385 -2655243 -1670844292 -1877476108 -1119892240
        1564276728 979671792 -1392705798 1068236790</internalNodes>
      <leafValues>
        -2.9887241125106812e-01 3.4609946608543396e-01</leafValues></_>
    <_>
      <internalNodes>
        0 -1 344 1324007071 -1669562628 -360458 -1933452 1560038640
        1425334132 -16890258 2147442655</internalNodes>
      <leafValues>
        -2.9396334290504456e-01 3.3701300621032715e-01</leafValues></_>
    <_>
      <internalNodes>
        0 -1 1584 -5353643 -167908660 -238659140 -11556355 -1813005320
        -640047989 -805376008 -1158615074</internalNodes>
      <leafValues>
        -3.7687394022941589e-01 2.6396319270133972e-01</leafValues></_>
    <_>
      <internalNodes>
        0 -1 1479 -47317261 1047182973 -66055 -1912668162 -1342406657
        -1929510913 1560147453 -1929380353</internalNodes>
      <leafValues>
        -2.5582796335220337e-01 3.7354522943496704e-01</leafValues></_>
    <_>
      <internalNodes>
        0 -1 1232 2009070199 185356784 -570566416 -1343306892
        -1423754252 770757045 -860980140 -456690690</internalNodes>
      <leafValues>
        -4.0658181905746460e-01 2.3214729130268097e-01</leafValues></_>
    <_>
      <internalNodes>
        0 -1 90 -406081909 -422687104 -393392128 -138624452 2026819407
        -405290014 -1014525552 1350952416</internalNodes>
      <leafValues>
        -4.3352583050727844e-01 2.0963960886001587e-01</leafValues></_>
    <_>
      <internalNodes>
        0 -1 1426 -10676832 -13374563 -1670745446 -44126772 -640288880
        -8737810 1010195258 1328766462</internalNodes>
      <leafValues>
        -3.9720228314399719e-01 2.1878546476364136e-01</leafValues></_>
    <_>
      <internalNodes>
        0 -1 939 309944993 -1373316107 -1346453476 -1610812500
        -571712516 2096996535 -1409385602 553604982</internalNodes>
      <leafValues>
        -3.8675749301910400e-01 2.3477396368980408e-01</leafValues></_>
    <_>
      <internalNodes>
        0 -1 1574 -8399974 -8959122 1812144636 1792632657 -578766336
        -10611554 1926872012 -722175160</internalNodes>
      <leafValues>
        -3.3680182695388794e-01 2.7415883541107178e-01</leafValues></_></weakClassifiers></stage8>
</opencv_storage>
