<?xml version="1.0"?>
<opencv_storage>
<stage7>
  <maxWeakCount>13</maxWeakCount>
  <stageThreshold>-2.4619812965393066e+00</stageThreshold>
  <weakClassifiers>
    <_>
      <internalNodes>
        0 -1 1160 -2099201 -3841 -1683494920 -797729 -75761014 -71722053
        453508890 2138832863</internalNodes>
      <leafValues>
        -8.2199084758758545e-01 -1.1940298229455948e-01</leafValues></_>
    <_>
      <internalNodes>
        0 -1 39 -607127826 -540216114 -795028004 1576849628 2128609227
        -16850750 -335683089 -539115585</internalNodes>
      <leafValues>
        -6.6449254751205444e-01 1.6845966875553131e-01</leafValues></_>
    <_>
      <internalNodes>
        0 -1 496 1608475839 -1612909986 -1071318018 -135410100 421026782
        1502906620 -121831430 89249722</internalNodes>
      <leafValues>
        -5.2731937170028687e-01 2.9907464981079102e-01</leafValues></_>
    <_>
      <internalNodes>
        0 -1 416 1408860330 -67127441 564172797 2112875463 -335636018
        -71568741 1927962367 1742733019</internalNodes>
      <leafValues>
        -4.6189540624618530e-01 3.2730984687805176e-01</leafValues></_>
    <_>
      <internalNodes>
        0 -1 849 2113920943 1568194228 -16847196 -4227400 -573121284
        492108924 -98306 1906827231</internalNodes>
      <leafValues>
        -3.1393629312515259e-01 4.3213936686515808e-01</leafValues></_>
    <_>
      <internalNodes>
        0 -1 1211 -175113319 -1621757868 -758885468 -1612713088
        -1194919172 760863308 754769656 1997537126</internalNodes>
      <leafValues>
        -3.9994481205940247e-01 3.0547142028808594e-01</leafValues></_>
    <_>
      <internalNodes>
        0 -1 1599 -1157636617 -1447362883 -1644232906 787888124
        -1241600833 -1342276098 -596001 -1929445889</internalNodes>
      <leafValues>
        -3.2947623729705811e-01 3.6470881104469299e-01</leafValues></_>
    <_>
      <internalNodes>
        0 -1 565 -2111128269 -1760635664 1951947637 1568986618
        -1421246541 -1129332055 -477832193 -1644395036</internalNodes>
      <leafValues>
        -3.4692704677581787e-01 3.1755220890045166e-01</leafValues></_>
    <_>
      <internalNodes>
        0 -1 144 251030207 -10563078 -794893772 -71386378 -121079559
        290590322 2140553438 1895292626</internalNodes>
      <leafValues>
        -3.7848389148712158e-01 2.9508388042449951e-01</leafValues></_>
    <_>
      <internalNodes>
        0 -1 786 905584683 1015477234 -874982596 -136260 1933917168
        1414832796 -1095827458 2140495834</internalNodes>
      <leafValues>
        -3.9711293578147888e-01 2.8617742657661438e-01</leafValues></_>
    <_>
      <internalNodes>
        0 -1 988 1543503871 -1628383236 -703151906 805207796 -653504036
        424985478 -71389580 2063334134</internalNodes>
      <leafValues>
        -3.7275323271751404e-01 3.2199046015739441e-01</leafValues></_>
    <_>
      <internalNodes>
        0 -1 1442 -1535 -6750212 2113658288 -1077936388 -1646723592 -132
        1548156478 655359867</internalNodes>
      <leafValues>
        -2.9725700616836548e-01 3.5526129603385925e-01</leafValues></_>
    <_>
      <internalNodes>
        0 -1 979 1058913791 996029950 -1095311730 -294211332 -348385444
        -1276017941 -538419340 -16977164</internalNodes>
      <leafValues>
        -5.3960835933685303e-01 1.9443020224571228e-01</leafValues></_></weakClassifiers></stage7>
</opencv_storage>
