<?xml version="1.0"?>
<opencv_storage>
<stage14>
  <maxWeakCount>27</maxWeakCount>
  <stageThreshold>-2.5025694370269775e+00</stageThreshold>
  <weakClassifiers>
    <_>
      <internalNodes>
        0 -1 1130 -34087081 -35661345 -35785409 -538996261 -69600567
        -67901953 -562039873 -1025</internalNodes>
      <leafValues>
        -8.0558371543884277e-01 -3.5398003458976746e-01</leafValues></_>
    <_>
      <internalNodes>
        0 -1 396 -154141729 -337717799 -1861157121 -795137 -352703745
        -109688035 -14385281 -9175201</internalNodes>
      <leafValues>
        -4.1618466377258301e-01 2.4281820654869080e-01</leafValues></_>
    <_>
      <internalNodes>
        0 -1 1582 -134219007 -571477042 -1599657312 933489029 -1848832
        1937731866 -352649524 -743441409</internalNodes>
      <leafValues>
        -3.2010480761528015e-01 2.8662213683128357e-01</leafValues></_>
    <_>
      <internalNodes>
        0 -1 1294 -13767233 1061019573 -302581264 1073741820 2147237848
        -1350565892 -17368322 801079263</internalNodes>
      <leafValues>
        -2.2366827726364136e-01 3.5903170704841614e-01</leafValues></_>
    <_>
      <internalNodes>
        0 -1 1519 -150997013 -2034971140 -134758469 -2051134240
        -1107378178 -1913201165 -1128399425 -1929388545</internalNodes>
      <leafValues>
        -2.0725549757480621e-01 3.4775239229202271e-01</leafValues></_>
    <_>
      <internalNodes>
        0 -1 1396 133709149 -1122463400 -912958753 -1073948168 238631220
        968794317 196756596 -1359298308</internalNodes>
      <leafValues>
        -3.9156967401504517e-01 2.2518695890903473e-01</leafValues></_>
    <_>
      <internalNodes>
        0 -1 370 -276824069 -1610678340 -17240336 -4100 -11608354
        1557422074 -1367351574 1476386783</internalNodes>
      <leafValues>
        -2.2176828980445862e-01 3.3755290508270264e-01</leafValues></_>
    <_>
      <internalNodes>
        0 -1 1162 -125968385 -1285893692 921334653 117241116 -1279404
        -1078039639 -25379971 -17006732</internalNodes>
      <leafValues>
        -2.9345235228538513e-01 2.3822927474975586e-01</leafValues></_>
    <_>
      <internalNodes>
        0 -1 1107 2078791479 252766328 -1127054792 -1347545732
        1583905276 2067327996 -638026372 1459584244</internalNodes>
      <leafValues>
        -3.7617030739784241e-01 1.9341078400611877e-01</leafValues></_>
    <_>
      <internalNodes>
        0 -1 176 1826377981 -1124323331 -251275649 -6767690 -128655620
        1279346945 -285988052 740324884</internalNodes>
      <leafValues>
        -6.1832511425018311e-01 1.0634492337703705e-01</leafValues></_>
    <_>
      <internalNodes>
        0 -1 6 1074431177 -1661560168 -2086725993 -38308354 -1144128789
        -68747597 -276132097 -1897431809</internalNodes>
      <leafValues>
        -3.0495995283126831e-01 2.1820127964019775e-01</leafValues></_>
    <_>
      <internalNodes>
        0 -1 1455 1944034081 -1311598836 1930383676 1038031864
        -785203212 -370607476 -1175528450 1831959282</internalNodes>
      <leafValues>
        -2.7832984924316406e-01 2.4185793101787567e-01</leafValues></_>
    <_>
      <internalNodes>
        0 -1 532 1610593023 242275327 1115845046 442563192 -1953359784
        1877142118 -76126116 1915777396</internalNodes>
      <leafValues>
        -6.1247462034225464e-01 1.0714382678270340e-01</leafValues></_>
    <_>
      <internalNodes>
        0 -1 478 1017094131 -1644663058 -16986884 -1379303786 1593630718
        -1613201410 -17369089 670531455</internalNodes>
      <leafValues>
        -2.3601585626602173e-01 2.9026237130165100e-01</leafValues></_>
    <_>
      <internalNodes>
        0 -1 1508 1739332149 435737524 -1592274608 -1360405568
        -872449480 493601212 -562785836 -184749388</internalNodes>
      <leafValues>
        -4.7735217213630676e-01 1.4051109552383423e-01</leafValues></_>
    <_>
      <internalNodes>
        0 -1 705 -1212416145 -118169124 1997967196 -2400 2046744820
        483416224 -83953666 1711127551</internalNodes>
      <leafValues>
        -2.5337418913841248e-01 2.6826956868171692e-01</leafValues></_>
    <_>
      <internalNodes>
        0 -1 1345 1610561429 -1082822071 1033784980 1066588085 -6877036
        2143069088 614493870 1869341695</internalNodes>
      <leafValues>
        -2.7620911598205566e-01 2.3776511847972870e-01</leafValues></_>
    <_>
      <internalNodes>
        0 -1 1168 1114866327 306295276 -784313580 -275928068 1767766928
        2071233265 -18949782 1069505402</internalNodes>
      <leafValues>
        -2.4769054353237152e-01 2.6823082566261292e-01</leafValues></_>
    <_>
      <internalNodes>
        0 -1 1306 1603876863 238866488 -237000238 -297995268 968389484
        -1283946329 -618105232 817676016</internalNodes>
      <leafValues>
        -6.3014429807662964e-01 9.9615417420864105e-02</leafValues></_>
    <_>
      <internalNodes>
        0 -1 686 1918886615 -1099344899 -737618596 2097992184 968687732
        762818937 2074770242 1996487666</internalNodes>
      <leafValues>
        -3.1137791275978088e-01 1.9670592248439789e-01</leafValues></_>
    <_>
      <internalNodes>
        0 -1 560 -1574799309 -786556730 -1487159554 1604182980 33205245
        -1140120949 -1884556289 -1753935707</internalNodes>
      <leafValues>
        -3.0190613865852356e-01 2.0913243293762207e-01</leafValues></_>
    <_>
      <internalNodes>
        0 -1 290 685696634 -1964444742 1587283682 -34670656 -208053465
        71697069 1670947698 -267577356</internalNodes>
      <leafValues>
        -3.9663946628570557e-01 1.5423889458179474e-01</leafValues></_>
    <_>
      <internalNodes>
        0 -1 1224 1004232695 1061016403 -13066668 -1923132955 -542442636
        -63909052 -129893426 1818746490</internalNodes>
      <leafValues>
        -2.5960090756416321e-01 2.4410113692283630e-01</leafValues></_>
    <_>
      <internalNodes>
        0 -1 1231 2117892965 -1399397988 -1122921993 1072618716
        -1984399984 -1147483479 -73237644 -1094298636</internalNodes>
      <leafValues>
        -3.9816954731941223e-01 1.5880110859870911e-01</leafValues></_>
    <_>
      <internalNodes>
        0 -1 1368 -35702569 798544348 -1852929036 1033884636 -581805456
        2139074808 1891523198 1234336374</internalNodes>
      <leafValues>
        -3.0412748456001282e-01 2.0412038266658783e-01</leafValues></_>
    <_>
      <internalNodes>
        0 -1 1525 -86187968 2138668916 -511718530 -81791266 -206716
        -17221810 1459026924 -627647733</internalNodes>
      <leafValues>
        -1.9946527481079102e-01 3.1133908033370972e-01</leafValues></_>
    <_>
      <internalNodes>
        0 -1 126 -1895895625 -604242186 -17273226 -2183636 745844438
        -591593476 2130073306 1634172695</internalNodes>
      <leafValues>
        -2.2927129268646240e-01 2.8399565815925598e-01</leafValues></_></weakClassifiers></stage14>
</opencv_storage>
