<?xml version="1.0"?>
<opencv_storage>
<cascade>
  <stageType>BOOST</stageType>
  <featureType>LBP</featureType>
  <height>16</height>
  <width>16</width>
  <stageParams>
    <boostType>GAB</boostType>
    <minHitRate>9.9900001287460327e-01</minHitRate>
    <maxFalseAlarm>4.0000000596046448e-01</maxFalseAlarm>
    <weightTrimRate>9.4999999999999996e-01</weightTrimRate>
    <maxDepth>1</maxDepth>
    <maxWeakCount>100</maxWeakCount></stageParams>
  <featureParams>
    <maxCatCount>256</maxCatCount>
    <featSize>1</featSize></featureParams>
  <stageNum>11</stageNum>
  <stages>
    <!-- stage 0 -->
    <_>
      <maxWeakCount>8</maxWeakCount>
      <stageThreshold>-2.8462724685668945e+00</stageThreshold>
      <weakClassifiers>
        <_>
          <internalNodes>
            0 -1 4 -1 -65538 -65537 -196610 -1 -65537 -1 -1</internalNodes>
          <leafValues>
            -8.6011362075805664e-01 4.3002781271934509e-01</leafValues></_>
        <_>
          <internalNodes>
            0 -1 80 -1 -1 -65540 -36 -6 -66052 -66376 -58917132</internalNodes>
          <leafValues>
            -7.4797236919403076e-01 3.9108940958976746e-01</leafValues></_>
        <_>
          <internalNodes>
            0 -1 31 1873751850 -1 930034981 -16401 -16433 -1 1073709055
            -1048577</internalNodes>
          <leafValues>
            -6.0494589805603027e-01 4.7608438134193420e-01</leafValues></_>
        <_>
          <internalNodes>
            0 -1 116 536690687 -212995 -1 -327684 -1073856548 -65537
            -245764 -16990252</internalNodes>
          <leafValues>
            -5.5542552471160889e-01 5.0829935073852539e-01</leafValues></_>
        <_>
          <internalNodes>
            0 -1 95 -262145 -1342406660 -1048577 -1364262916 1878945565
            -1 -536936844 -285933964</internalNodes>
          <leafValues>
            -6.2711334228515625e-01 4.3025302886962891e-01</leafValues></_>
        <_>
          <internalNodes>
            0 -1 167 -221 -196626 -33555584 -16859154 -58753700 -32779
            2130640372 -185073665</internalNodes>
          <leafValues>
            -4.6295604109764099e-01 4.7145596146583557e-01</leafValues></_>
        <_>
          <internalNodes>
            0 -1 86 1744789503 2146140159 -270532609 -16842753 -8618244
            -4260867 -888836 -80707596</internalNodes>
          <leafValues>
            -4.8089474439620972e-01 4.4076871871948242e-01</leafValues></_>
        <_>
          <internalNodes>
            0 -1 5 -1615877730 -17891330 1548005340 1461518078 -132132
            -35725318 -31064130 -548339752</internalNodes>
          <leafValues>
            -6.2794208526611328e-01 3.5279253125190735e-01</leafValues></_></weakClassifiers></_>
    <!-- stage 1 -->
    <_>
      <maxWeakCount>10</maxWeakCount>
      <stageThreshold>-2.3979363441467285e+00</stageThreshold>
      <weakClassifiers>
        <_>
          <internalNodes>
            0 -1 162 -233 -33 -1 -33 -1 -1 -1 -1</internalNodes>
          <leafValues>
            -8.2762289047241211e-01 4.0067720413208008e-01</leafValues></_>
        <_>
          <internalNodes>
            0 -1 11 -1 -65538 -589826 -65544 -134217729 -196612 -1572865
            -571146246</internalNodes>
          <leafValues>
            -7.2484910488128662e-01 3.1476017832756042e-01</leafValues></_>
        <_>
          <internalNodes>
            0 -1 159 1073741695 -1342242828 -65 -1359020036 2147254269
            -65537 -12 -318965772</internalNodes>
          <leafValues>
            -6.5466511249542236e-01 3.2564359903335571e-01</leafValues></_>
        <_>
          <internalNodes>
            0 -1 17 -286265345 -286589201 2130640110 -25231418 -4097
            1979151359 -9437321 -151783625</internalNodes>
          <leafValues>
            -5.4665696620941162e-01 4.0710395574569702e-01</leafValues></_>
        <_>
          <internalNodes>
            0 -1 27 -537438435 -1074790529 -71897345 -29687818
            1853833041 2138668925 -67666060 -93290634</internalNodes>
          <leafValues>
            -5.8059328794479370e-01 3.5592910647392273e-01</leafValues></_>
        <_>
          <internalNodes>
            0 -1 2 -67129682 -8392705 737849081 1073737703 -545345 -1
            -86530 -8237</internalNodes>
          <leafValues>
            -4.0446788072586060e-01 4.7682562470436096e-01</leafValues></_>
        <_>
          <internalNodes>
            0 -1 137 1069514623 1034813181 -2097156 -1577189636
            1071103989 -1212219396 2122118388 -1661805100</internalNodes>
          <leafValues>
            -4.8306605219841003e-01 3.9320904016494751e-01</leafValues></_>
        <_>
          <internalNodes>
            0 -1 125 -527358 -1073873154 -335806476 -33562788 -75632900
            2130575356 1987247860 141687416</internalNodes>
          <leafValues>
            -6.7318707704544067e-01 2.4863916635513306e-01</leafValues></_>
        <_>
          <internalNodes>
            0 -1 58 1876913919 542048255 -286081282 -287113234
            1606310621 1719566335 -852144 1727528946</internalNodes>
          <leafValues>
            -5.9772503376007080e-01 2.7249577641487122e-01</leafValues></_>
        <_>
          <internalNodes>
            0 -1 82 2111823871 1562984126 -687936396 -37847368 -36413444
            1014824316 -233492 1991737342</internalNodes>
          <leafValues>
            -4.9428305029869080e-01 3.2254135608673096e-01</leafValues></_></weakClassifiers></_>
    <!-- stage 2 -->
    <_>
      <maxWeakCount>11</maxWeakCount>
      <stageThreshold>-2.1451959609985352e+00</stageThreshold>
      <weakClassifiers>
        <_>
          <internalNodes>
            0 -1 105 -18665 -513 -8388609 -1 -1 -1 -1 -1</internalNodes>
          <leafValues>
            -8.3727383613586426e-01 2.7452829480171204e-01</leafValues></_>
        <_>
          <internalNodes>
            0 -1 179 -217 -2097153 -268437522 -2049 -152044800 -83890321
            -2 -1</internalNodes>
          <leafValues>
            -5.5384224653244019e-01 4.7003266215324402e-01</leafValues></_>
        <_>
          <internalNodes>
            0 -1 113 -1073742337 -1090715651 -131073 -271646722 -230148
            -84934658 -197260 -285409420</internalNodes>
          <leafValues>
            -5.8069950342178345e-01 3.5226422548294067e-01</leafValues></_>
        <_>
          <internalNodes>
            0 -1 85 2113912831 2004647927 -16385 -1073938435 -9151276
            2146861055 -491524 -1015952</internalNodes>
          <leafValues>
            -5.2057695388793945e-01 3.5739037394523621e-01</leafValues></_>
        <_>
          <internalNodes>
            0 -1 7 -1193562130 -689115394 -18548740 -573022568
            2143288319 -537067782 2130574270 1576893947</internalNodes>
          <leafValues>
            -5.3569161891937256e-01 3.2126531004905701e-01</leafValues></_>
        <_>
          <internalNodes>
            0 -1 81 -822116609 486440957 -83935367 -1359544338
            2122207100 -1073741839 -654557364 -16973964</internalNodes>
          <leafValues>
            -5.7909846305847168e-01 2.7567481994628906e-01</leafValues></_>
        <_>
          <internalNodes>
            0 -1 74 889681802 -275972100 -34803748 -1187948 2073688812
            -2034756 -5443586 1565904602</internalNodes>
          <leafValues>
            -5.0724816322326660e-01 3.0578571557998657e-01</leafValues></_>
        <_>
          <internalNodes>
            0 -1 169 724662267 -1371783427 -268435459 -1375732228
            1014822909 -1375797315 2147418109 -1929454084</internalNodes>
          <leafValues>
            -4.8183655738830566e-01 3.1175836920738220e-01</leafValues></_>
        <_>
          <internalNodes>
            0 -1 53 -286288215 1071578886 1962868476 2142207940
            -545661954 524599294 -121835558 351764439</internalNodes>
          <leafValues>
            -4.2389464378356934e-01 3.6956697702407837e-01</leafValues></_>
        <_>
          <internalNodes>
            0 -1 119 2130392832 -542639114 1405025148 1843260412
            -222324512 -16777232 2131820188 894564081</internalNodes>
          <leafValues>
            -7.0741677284240723e-01 2.0263545215129852e-01</leafValues></_>
        <_>
          <internalNodes>
            0 -1 122 1761554359 -1493501188 -539107523 -285409478
            -8631427 -197937 -65676 -51585164</internalNodes>
          <leafValues>
            -5.2572602033615112e-01 2.6402375102043152e-01</leafValues></_></weakClassifiers></_>
    <!-- stage 3 -->
    <_>
      <maxWeakCount>13</maxWeakCount>
      <stageThreshold>-2.5256879329681396e+00</stageThreshold>
      <weakClassifiers>
        <_>
          <internalNodes>
            0 -1 1 -353374465 -8193 -10493953 -1 -4461569 -1025 -1 -1</internalNodes>
          <leafValues>
            -8.2898914813995361e-01 2.6603680849075317e-01</leafValues></_>
        <_>
          <internalNodes>
            0 -1 175 -1273 -1 -1367343361 -1 -75515328 -2359305
            -83886337 -1</internalNodes>
          <leafValues>
            -5.4812324047088623e-01 5.0183427333831787e-01</leafValues></_>
        <_>
          <internalNodes>
            0 -1 146 1069285367 -1342382084 -620756993 -1409355780
            -1082371 -1073742849 -182540 -1073807876</internalNodes>
          <leafValues>
            -4.8025265336036682e-01 3.7313747406005859e-01</leafValues></_>
        <_>
          <internalNodes>
            0 -1 155 1065353207 -1615134796 -1342261515 -1347634692
            -1078689795 -16809985 -33751200 -285411340</internalNodes>
          <leafValues>
            -5.6578624248504639e-01 2.9395097494125366e-01</leafValues></_>
        <_>
          <internalNodes>
            0 -1 32 147500718 -1903367558 -1646629 1206865886 1065246703
            1576467455 2147352510 396328699</internalNodes>
          <leafValues>
            -5.8097058534622192e-01 2.7628567814826965e-01</leafValues></_>
        <_>
          <internalNodes>
            0 -1 26 -38830601 -9030659 -587239429 -69636 2129878907
            -559234 -604340363 -9298107</internalNodes>
          <leafValues>
            -4.0855550765991211e-01 3.8186523318290710e-01</leafValues></_>
        <_>
          <internalNodes>
            0 -1 10 -822349845 1190030310 -268471104 -205729028 -2101557
            -268449820 -1544181801 -790632964</internalNodes>
          <leafValues>
            -3.4764575958251953e-01 4.1596943140029907e-01</leafValues></_>
        <_>
          <internalNodes>
            0 -1 71 436159609 -637632523 -570499201 2113601525
            -1080533136 -67739785 -76005506 -80576714</internalNodes>
          <leafValues>
            -4.4575345516204834e-01 3.1448036432266235e-01</leafValues></_>
        <_>
          <internalNodes>
            0 -1 123 368521123 2138963957 -1073840140 -272629810
            2096914368 2120089598 -1897463814 934248447</internalNodes>
          <leafValues>
            -3.1665334105491638e-01 4.3914553523063660e-01</leafValues></_>
        <_>
          <internalNodes>
            0 -1 111 779988791 782824934 -107283601 -1359164558
            1543315316 -291538497 -84486276 -153288716</internalNodes>
          <leafValues>
            -5.6196022033691406e-01 2.6113572716712952e-01</leafValues></_>
        <_>
          <internalNodes>
            0 -1 176 928965043 -1474021958 -371336769 -1967194771
            -1143112705 117436395 -6424903 -1929456408</internalNodes>
          <leafValues>
            -4.4852170348167419e-01 2.8293836116790771e-01</leafValues></_>
        <_>
          <internalNodes>
            0 -1 70 501185788 2063507454 -144703532 2145881838
            1607204852 1480637620 -71374132 620068474</internalNodes>
          <leafValues>
            -5.0378018617630005e-01 2.4684317409992218e-01</leafValues></_>
        <_>
          <internalNodes>
            0 -1 23 -268779929 -17369553 -19121538 -20029490 -8446428
            -29039751 -617464216 -159989899</internalNodes>
          <leafValues>
            -4.2683809995651245e-01 2.8026351332664490e-01</leafValues></_></weakClassifiers></_>
    <!-- stage 4 -->
    <_>
      <maxWeakCount>16</maxWeakCount>
      <stageThreshold>-2.5155742168426514e+00</stageThreshold>
      <weakClassifiers>
        <_>
          <internalNodes>
            0 -1 117 -233 -2097153 -572787201 -1 -67372357 -19969 -1
            -1025</internalNodes>
          <leafValues>
            -8.2890146970748901e-01 2.3002886772155762e-01</leafValues></_>
        <_>
          <internalNodes>
            0 -1 3 -636555538 -24577 155766239 1602203455 -8388609
            -69486081 -268439573 -1</internalNodes>
          <leafValues>
            -6.5319174528121948e-01 2.8044098615646362e-01</leafValues></_>
        <_>
          <internalNodes>
            0 -1 182 -2097885 -1077939409 -1393557728 -1247040661
            -276824252 -1149976707 -86118188 -184553473</internalNodes>
          <leafValues>
            -4.5097407698631287e-01 3.8217821717262268e-01</leafValues></_>
        <_>
          <internalNodes>
            0 -1 15 -287375617 -536952844 2063517410 -17367116
            2147408638 1324772218 -112546 1988099923</internalNodes>
          <leafValues>
            -4.1987562179565430e-01 3.3480980992317200e-01</leafValues></_>
        <_>
          <internalNodes>
            0 -1 66 1056734971 -1930626060 -86312961 -352387338
            2063366772 -16847370 -269058178 -84869132</internalNodes>
          <leafValues>
            -6.0570955276489258e-01 2.3059436678886414e-01</leafValues></_>
        <_>
          <internalNodes>
            0 -1 75 1592620967 2096955358 -332040 -268566588 -587964452
            2141118460 -537075714 749420479</internalNodes>
          <leafValues>
            -2.8780302405357361e-01 4.3876165151596069e-01</leafValues></_>
        <_>
          <internalNodes>
            0 -1 185 -1703093773 -1368852930 -539820111 754220028
            -805306387 -1968158471 -395268 -855836244</internalNodes>
          <leafValues>
            -4.6630948781967163e-01 2.7506616711616516e-01</leafValues></_>
        <_>
          <internalNodes>
            0 -1 118 -11586176 1739585788 -258192388 939356153 872235776
            -547356687 1043356475 2130706331</internalNodes>
          <leafValues>
            -4.6953818202018738e-01 2.7077358961105347e-01</leafValues></_>
        <_>
          <internalNodes>
            0 -1 103 2096901503 -15435780 1499160567 -1614875169
            -2090512 -1140956712 2138765020 -1347257448</internalNodes>
          <leafValues>
            -4.5240500569343567e-01 2.7470675110816956e-01</leafValues></_>
        <_>
          <internalNodes>
            0 -1 130 -170918527 -1080754442 -48894984 -1651115294
            -69828748 220060188 1841159802 1697642098</internalNodes>
          <leafValues>
            -3.8911908864974976e-01 3.2011625170707703e-01</leafValues></_>
        <_>
          <internalNodes>
            0 -1 173 2011109951 779673072 -1419772944 -1360207936
            1268677748 436176951 -558440972 -184752460</internalNodes>
          <leafValues>
            -6.1000621318817139e-01 2.0950499176979065e-01</leafValues></_>
        <_>
          <internalNodes>
            0 -1 79 -1852407843 1060952532 1600840560 2109601974
            1538024956 139767908 2095741944 1957952510</internalNodes>
          <leafValues>
            -4.5286309719085693e-01 2.7205342054367065e-01</leafValues></_>
        <_>
          <internalNodes>
            0 -1 131 921534201 -1168352961 -754002561 -287510148
            2074683956 -1178600973 -1141145740 -84902924</internalNodes>
          <leafValues>
            -6.3482636213302612e-01 1.9034335017204285e-01</leafValues></_>
        <_>
          <internalNodes>
            0 -1 40 -1436255505 534430682 -91689364 -33589358 -640194338
            1246794338 2127616216 2088198107</internalNodes>
          <leafValues>
            -3.6167559027671814e-01 3.3495897054672241e-01</leafValues></_>
        <_>
          <internalNodes>
            0 -1 135 1608515411 1051131900 -237582236 -1912683028
            -67375444 -2055980112 -184817076 -2072130050</internalNodes>
          <leafValues>
            -4.1622301936149597e-01 2.8833082318305969e-01</leafValues></_>
        <_>
          <internalNodes>
            0 -1 60 -2102874829 862909666 -161491979 1293194590
            -1153646596 -1128304129 -106652161 -1443093851</internalNodes>
          <leafValues>
            -3.7721899151802063e-01 3.3941867947578430e-01</leafValues></_></weakClassifiers></_>
    <!-- stage 5 -->
    <_>
      <maxWeakCount>17</maxWeakCount>
      <stageThreshold>-2.3208436965942383e+00</stageThreshold>
      <weakClassifiers>
        <_>
          <internalNodes>
            0 -1 148 -16841611 -8193 -264193 -2049 -19923457 -1068133 -5
            -5</internalNodes>
          <leafValues>
            -8.5363918542861938e-01 -1.0831234604120255e-01</leafValues></_>
        <_>
          <internalNodes>
            0 -1 0 -896536593 -1074012437 -1612752905 -526849 -204473361
            -68157697 -524289 -1</internalNodes>
          <leafValues>
            -5.0760781764984131e-01 4.3796089291572571e-01</leafValues></_>
        <_>
          <internalNodes>
            0 -1 184 -37750221 -1221067027 -85987680 -337641554 -2099456
            -134790211 -5242908 -134218777</internalNodes>
          <leafValues>
            -3.9211329817771912e-01 4.1254159808158875e-01</leafValues></_>
        <_>
          <internalNodes>
            0 -1 59 -136339457 -188946433 -604177569 -68143105
            1981042804 -76257177 -13993148 -76382382</internalNodes>
          <leafValues>
            -4.2054930329322815e-01 3.4359902143478394e-01</leafValues></_>
        <_>
          <internalNodes>
            0 -1 65 481361599 741932990 -1090589957 -17498116 2063358078
            -1611511105 -293668252 -21695500</internalNodes>
          <leafValues>
            -5.7922637462615967e-01 2.2632960975170135e-01</leafValues></_>
        <_>
          <internalNodes>
            0 -1 91 1449132019 976150395 -571030564 -1086391392
            1266229204 1507599018 -553878546 654311286</internalNodes>
          <leafValues>
            -3.8823723793029785e-01 3.3165851235389709e-01</leafValues></_>
        <_>
          <internalNodes>
            0 -1 13 -823202123 -4259842 -285413649 -275780174 1476190174
            1610416127 -33630465 1564475359</internalNodes>
          <leafValues>
            -2.7227050065994263e-01 4.2358151078224182e-01</leafValues></_>
        <_>
          <internalNodes>
            0 -1 174 -340836621 251197436 -549070849 -1652687652
            1070653429 -1160001539 -1895974404 -1929382660</internalNodes>
          <leafValues>
            -3.6844068765640259e-01 3.3285325765609741e-01</leafValues></_>
        <_>
          <internalNodes>
            0 -1 154 1874281915 1073542132 1943790910 -1344351756
            2075978612 -154851 2125757428 -16842764</internalNodes>
          <leafValues>
            -4.5443952083587646e-01 2.4291850626468658e-01</leafValues></_>
        <_>
          <internalNodes>
            0 -1 171 -584121327 -570427393 -2101391363 -75841591
            -1462592326 -84019714 -218170646 -219235301</internalNodes>
          <leafValues>
            -2.9659089446067810e-01 3.8913661241531372e-01</leafValues></_>
        <_>
          <internalNodes>
            0 -1 39 1845447421 2020897532 -634366090 -1141572880
            -854437128 1605876334 -1640215954 2088196478</internalNodes>
          <leafValues>
            -3.9926543831825256e-01 2.8449133038520813e-01</leafValues></_>
        <_>
          <internalNodes>
            0 -1 126 1342123511 -1430340617 -136840849 -293801996
            1891458916 -1078353359 788323892 -17500172</internalNodes>
          <leafValues>
            -5.1286405324935913e-01 2.0958110690116882e-01</leafValues></_>
        <_>
          <internalNodes>
            0 -1 9 -525931285 -962318614 -692560106 2146798016
            -1949925377 -19503713 1692362460 -469769042</internalNodes>
          <leafValues>
            -3.1981801986694336e-01 3.4553068876266479e-01</leafValues></_>
        <_>
          <internalNodes>
            0 -1 124 -147175631 2134372838 -1615200896 -1343243658
            -300310596 1316879100 926038538 970194139</internalNodes>
          <leafValues>
            -3.5738918185234070e-01 3.1366834044456482e-01</leafValues></_>
        <_>
          <internalNodes>
            0 -1 68 2145349609 -1626418756 -145031496 2137979902
            -643904806 2119612664 2062284636 1928855550</internalNodes>
          <leafValues>
            -4.2177695035934448e-01 2.5905764102935791e-01</leafValues></_>
        <_>
          <internalNodes>
            0 -1 144 2103439235 -1078136844 2097151996 -1615216644
            -25231384 -16777220 -461439362 2137480575</internalNodes>
          <leafValues>
            -2.5399056077003479e-01 4.0751692652702332e-01</leafValues></_>
        <_>
          <internalNodes>
            0 -1 166 1744651771 263845328 -640584259 -1629507464
            -76190380 -74504023 -268764172 -120135692</internalNodes>
          <leafValues>
            -4.3239665031433105e-01 2.5992238521575928e-01</leafValues></_></weakClassifiers></_>
    <!-- stage 6 -->
    <_>
      <maxWeakCount>19</maxWeakCount>
      <stageThreshold>-2.4886789321899414e+00</stageThreshold>
      <weakClassifiers>
        <_>
          <internalNodes>
            0 -1 61 -547357734 -524419 1896952849 -100664673 -627057665
            -4529961 1931675627 2009070527</internalNodes>
          <leafValues>
            -8.5762155055999756e-01 -1.8616630136966705e-01</leafValues></_>
        <_>
          <internalNodes>
            0 -1 164 -263208 -149363740 1560987040 -1078068484
            -649401096 -80967052 -637092294 1999107963</internalNodes>
          <leafValues>
            -6.1311566829681396e-01 2.3025754094123840e-01</leafValues></_>
        <_>
          <internalNodes>
            0 -1 34 -538247494 524198538 -152680840 117786400 1234951051
            1596728745 -336786561 389503967</internalNodes>
          <leafValues>
            -4.9054846167564392e-01 3.1890305876731873e-01</leafValues></_>
        <_>
          <internalNodes>
            0 -1 82 -33562647 1562984380 -16847756 -38043976 -573251588
            224198012 -69634 1429200863</internalNodes>
          <leafValues>
            -3.5445541143417358e-01 4.3059444427490234e-01</leafValues></_>
        <_>
          <internalNodes>
            0 -1 26 -34635811 -8945799 -16879623 2080092022 -17348998
            -174211 1509584720 -11042985</internalNodes>
          <leafValues>
            -3.3378794789314270e-01 3.9246752858161926e-01</leafValues></_>
        <_>
          <internalNodes>
            0 -1 44 -391581405 -605785908 -9505295 1475695730 258994171
            -16785409 1341118975 -1970806529</internalNodes>
          <leafValues>
            -2.2910362482070923e-01 4.8713809251785278e-01</leafValues></_>
        <_>
          <internalNodes>
            0 -1 132 -1660946672 374969081 359784024 -1649621328
            2109010940 1547759860 1877925848 1969618262</internalNodes>
          <leafValues>
            -4.6499869227409363e-01 2.3861549794673920e-01</leafValues></_>
        <_>
          <internalNodes>
            0 -1 163 -136842880 -2405895 -1719566273 2111554544
            -304667516 -72365352 779497118 1069511350</internalNodes>
          <leafValues>
            -3.7578946352005005e-01 2.8298014402389526e-01</leafValues></_>
        <_>
          <internalNodes>
            0 -1 72 854435519 2105997295 1111939116 2113784694
            2037921764 2142757274 -6395524 889151342</internalNodes>
          <leafValues>
            -3.2471659779548645e-01 3.1783059239387512e-01</leafValues></_>
        <_>
          <internalNodes>
            0 -1 69 -111233873 2094027702 -813526690 -66800 -784311848
            498076832 -348989096 1979183026</internalNodes>
          <leafValues>
            -3.4787240624427795e-01 2.9906716942787170e-01</leafValues></_>
        <_>
          <internalNodes>
            0 -1 6 -1010110501 -223465816 1308231614 1945571296
            -822313506 -1245186 -1795930370 2112831342</internalNodes>
          <leafValues>
            -3.0694344639778137e-01 3.3881449699401855e-01</leafValues></_>
        <_>
          <internalNodes>
            0 -1 18 -285217093 -541134854 -83956036 -12664834 2097045247
            502562815 2109099214 2138529439</internalNodes>
          <leafValues>
            -2.7262639999389648e-01 3.5502934455871582e-01</leafValues></_>
        <_>
          <internalNodes>
            0 -1 100 1610349693 -1613692932 -545337601 805220308
            -10682884 1070923774 -1114370 2071983094</internalNodes>
          <leafValues>
            -2.6731753349304199e-01 3.4476965665817261e-01</leafValues></_>
        <_>
          <internalNodes>
            0 -1 28 2113072091 -1277234946 -112684818 -1074735630
            -207210019 -151906057 -16679363 -310936208</internalNodes>
          <leafValues>
            -3.3071702718734741e-01 2.9856398701667786e-01</leafValues></_>
        <_>
          <internalNodes>
            0 -1 73 1978613939 -45684296 1804637484 -23231492 1766194640
            1501593768 1067355054 1561680722</internalNodes>
          <leafValues>
            -3.7165021896362305e-01 2.7401912212371826e-01</leafValues></_>
        <_>
          <internalNodes>
            0 -1 149 -34362273 1493138933 -1778451493 2109669245
            -427969875 -268632137 918484187 -171991268</internalNodes>
          <leafValues>
            -2.2830902040004730e-01 4.2922192811965942e-01</leafValues></_>
        <_>
          <internalNodes>
            0 -1 133 1540821759 1015329244 1091601884 -1364545508
            -1198503432 406868611 -287577220 1974953726</internalNodes>
          <leafValues>
            -3.1845262646675110e-01 2.8549268841743469e-01</leafValues></_>
        <_>
          <internalNodes>
            0 -1 114 -166332687 -1660237732 -2133212848 -681715210
            -653661196 645597792 -400822276 905964535</internalNodes>
          <leafValues>
            -3.2831650972366333e-01 2.8944602608680725e-01</leafValues></_>
        <_>
          <internalNodes>
            0 -1 186 -1192763427 691681334 -1252338764 -1369145891
            161409277 -1380025686 1861484476 -1933770833</internalNodes>
          <leafValues>
            -3.5324907302856445e-01 2.6662710309028625e-01</leafValues></_></weakClassifiers></_>
    <!-- stage 7 -->
    <_>
      <maxWeakCount>24</maxWeakCount>
      <stageThreshold>-2.5279026031494141e+00</stageThreshold>
      <weakClassifiers>
        <_>
          <internalNodes>
            0 -1 30 -357630977 -71322441 -549593601 -2124833 1804336127
            -282177 -81789953 -1281</internalNodes>
          <leafValues>
            -8.1477957963943481e-01 -1.5502555668354034e-01</leafValues></_>
        <_>
          <internalNodes>
            0 -1 170 -35782661 -1640194947 1597898173 -1914701825
            -1077952513 -1929380865 -536870913 -1929379841</internalNodes>
          <leafValues>
            -4.8343902826309204e-01 3.1721255183219910e-01</leafValues></_>
        <_>
          <internalNodes>
            0 -1 178 -177745141 -9179153 774990527 1375035827 -913507840
            -161544471 -151147782 -214434854</internalNodes>
          <leafValues>
            -3.4681195020675659e-01 3.6863258481025696e-01</leafValues></_>
        <_>
          <internalNodes>
            0 -1 108 -13168656 -8984722 -1078005888 800963116 2136803992
            2147024829 1384909450 934768639</internalNodes>
          <leafValues>
            -4.2529600858688354e-01 2.4431499838829041e-01</leafValues></_>
        <_>
          <internalNodes>
            0 -1 92 2013002721 999749628 -1046555860 -1342245036
            1234717640 2136800237 -353469060 619151223</internalNodes>
          <leafValues>
            -4.0573799610137939e-01 2.4230249226093292e-01</leafValues></_>
        <_>
          <internalNodes>
            0 -1 19 -1361383681 -2720836 -60890506 -65680 -594002946
            1606726526 -90902790 1191173838</internalNodes>
          <leafValues>
            -3.5565748810768127e-01 2.7574580907821655e-01</leafValues></_>
        <_>
          <internalNodes>
            0 -1 21 2029452797 -2443778 -240713864 -42271778 -654403844
            -1186194500 2063613448 -9411760</internalNodes>
          <leafValues>
            -4.4414803385734558e-01 2.2263653576374054e-01</leafValues></_>
        <_>
          <internalNodes>
            0 -1 27 518354761 -288598209 -628953352 2012280306
            1177748801 1534683995 -875397260 -13107369</internalNodes>
          <leafValues>
            -3.9836624264717102e-01 2.3957933485507965e-01</leafValues></_>
        <_>
          <internalNodes>
            0 -1 96 398315499 1027406612 1392697978 -1146712148
            1487948796 467526649 -67214372 618626935</internalNodes>
          <leafValues>
            -3.5874065756797791e-01 2.4749715626239777e-01</leafValues></_>
        <_>
          <internalNodes>
            0 -1 76 879331472 534556398 -537108664 -1610799252 860904956
            1494526396 -307068934 900681662</internalNodes>
          <leafValues>
            -4.1138476133346558e-01 2.2605000436306000e-01</leafValues></_>
        <_>
          <internalNodes>
            0 -1 6 -926880098 -2065404248 945177428 267868064 -281480737
            -156738 9585118 711816046</internalNodes>
          <leafValues>
            -4.8941209912300110e-01 1.7163603007793427e-01</leafValues></_>
        <_>
          <internalNodes>
            0 -1 37 486468575 2138896784 -619051629 -38338820 1391254014
            -1193461493 -671589496 2112304887</internalNodes>
          <leafValues>
            -2.9453393816947937e-01 2.9430282115936279e-01</leafValues></_>
        <_>
          <internalNodes>
            0 -1 147 919977845 -1114337028 326368255 -1141967400
            -1645437452 1040116473 -1141270531 -1396815620</internalNodes>
          <leafValues>
            -4.0120509266853333e-01 2.2550587356090546e-01</leafValues></_>
        <_>
          <internalNodes>
            0 -1 183 -16908512 -749315076 -1585024556 -1092831244
            2139053053 -644050675 -369427720 83372780</internalNodes>
          <leafValues>
            -6.0244685411453247e-01 1.3229636847972870e-01</leafValues></_>
        <_>
          <internalNodes>
            0 -1 57 1575955445 1049506682 -197865580 1874586344
            1599266480 239626712 -10085428 1146444886</internalNodes>
          <leafValues>
            -4.3618530035018921e-01 1.7934168875217438e-01</leafValues></_>
        <_>
          <internalNodes>
            0 -1 150 2137597329 2133967772 231381308 -1079125098
            1534552190 190684155 -1493928322 213154174</internalNodes>
          <leafValues>
            -3.5530272126197815e-01 2.3411668837070465e-01</leafValues></_>
        <_>
          <internalNodes>
            0 -1 29 -274495311 -647714582 -1250951179 -100975119
            1315175834 -16924675 -714670082 -1951492364</internalNodes>
          <leafValues>
            -2.3504655063152313e-01 3.4948164224624634e-01</leafValues></_>
        <_>
          <internalNodes>
            0 -1 83 485697251 785963743 -310655281 -1124936839
            2139642736 -552686662 2079915644 2129852404</internalNodes>
          <leafValues>
            -4.8211503028869629e-01 1.7957822978496552e-01</leafValues></_>
        <_>
          <internalNodes>
            0 -1 107 -51622784 -809627204 -319586375 -1414832666
            469700292 -71861491 668380846 502767334</internalNodes>
          <leafValues>
            -3.8385936617851257e-01 2.0088922977447510e-01</leafValues></_>
        <_>
          <internalNodes>
            0 -1 77 -592716613 410703868 -1231036308 -240804 1945119452
            435952383 -71406756 -84362256</internalNodes>
          <leafValues>
            -3.8686352968215942e-01 2.3240448534488678e-01</leafValues></_>
        <_>
          <internalNodes>
            0 -1 110 954535879 -1113260044 -1180488 -4325378 -537538603
            2134171647 -269688962 2141140991</internalNodes>
          <leafValues>
            -2.2897422313690186e-01 3.6883199214935303e-01</leafValues></_>
        <_>
          <internalNodes>
            0 -1 22 1547368187 -1361251586 -946299720 -135792660
            1523411837 -890995916 -1145675906 1291190110</internalNodes>
          <leafValues>
            -3.1002742052078247e-01 2.5664845108985901e-01</leafValues></_>
        <_>
          <internalNodes>
            0 -1 8 -105910309 -821629240 1577004342 1371324322 503217582
            -611881231 -1167661377 -975186228</internalNodes>
          <leafValues>
            -2.4473211169242859e-01 3.2253277301788330e-01</leafValues></_>
        <_>
          <internalNodes>
            0 -1 89 -832819071 2130579886 -819663012 -268457183
            446602124 2061085369 -273753400 802639482</internalNodes>
          <leafValues>
            -3.1930878758430481e-01 2.4675908684730530e-01</leafValues></_></weakClassifiers></_>
    <!-- stage 8 -->
    <_>
      <maxWeakCount>24</maxWeakCount>
      <stageThreshold>-2.3782837390899658e+00</stageThreshold>
      <weakClassifiers>
        <_>
          <internalNodes>
            0 -1 117 -169 -8769 -35785217 -2107905 -67372339 -67108865
            -88080385 -1</internalNodes>
          <leafValues>
            -8.0870997905731201e-01 -1.8056513369083405e-01</leafValues></_>
        <_>
          <internalNodes>
            0 -1 179 -137365973 -3670029 -1360284062 1912076279
            -1235813628 -67379346 -67699714 -203430657</internalNodes>
          <leafValues>
            -5.2254569530487061e-01 1.7860870063304901e-01</leafValues></_>
        <_>
          <internalNodes>
            0 -1 43 -19137569 -67174405 -1074725121 -983049 -17026819
            -76120203 -9027713 -9207969</internalNodes>
          <leafValues>
            -2.9043266177177429e-01 4.0081426501274109e-01</leafValues></_>
        <_>
          <internalNodes>
            0 -1 52 182404267 -536936836 1753544180 -1208104372
            -105219138 -36372756 -386072614 123068346</internalNodes>
          <leafValues>
            -3.9759612083435059e-01 2.4529618024826050e-01</leafValues></_>
        <_>
          <internalNodes>
            0 -1 46 -1406496606 -625692552 1042172726 -704781576
            185793531 -1682312265 489087997 -806383375</internalNodes>
          <leafValues>
            -3.3425685763359070e-01 2.8165999054908752e-01</leafValues></_>
        <_>
          <internalNodes>
            0 -1 93 2141125841 -549849604 960543728 -1073743118
            236801020 425399180 -1096353014 1966309374</internalNodes>
          <leafValues>
            -3.3882045745849609e-01 2.7613568305969238e-01</leafValues></_>
        <_>
          <internalNodes>
            0 -1 109 1065269183 -1610809922 -1493373315 -1342377716
            -201425932 -175633 -805512584 -323422220</internalNodes>
          <leafValues>
            -3.5775607824325562e-01 2.5746023654937744e-01</leafValues></_>
        <_>
          <internalNodes>
            0 -1 78 2061952767 -268896873 1482356412 1023213556
            2059301812 -67193357 -102858884 -16976940</internalNodes>
          <leafValues>
            -4.6556538343429565e-01 1.9644592702388763e-01</leafValues></_>
        <_>
          <internalNodes>
            0 -1 63 -1909516831 1052835580 -804457528 -1644865924
            1499224473 1557956810 -335651948 752835575</internalNodes>
          <leafValues>
            -3.2744199037551880e-01 2.8472560644149780e-01</leafValues></_>
        <_>
          <internalNodes>
            0 -1 153 2078660307 2134507256 -524612 -5242952 2128531160
            -1342242820 -587268354 2012209094</internalNodes>
          <leafValues>
            -2.6124268770217896e-01 3.4721016883850098e-01</leafValues></_>
        <_>
          <internalNodes>
            0 -1 145 536213945 -1348549680 -750038569 -1363487244
            -1075809164 -4603665 -68402316 -1090716684</internalNodes>
          <leafValues>
            -5.5136251449584961e-01 1.6480447351932526e-01</leafValues></_>
        <_>
          <internalNodes>
            0 -1 67 1289559789 -1890828839 -669093634 -1378943272
            1403540216 254851898 -1401398692 2130698207</internalNodes>
          <leafValues>
            -2.9347783327102661e-01 2.8774276375770569e-01</leafValues></_>
        <_>
          <internalNodes>
            0 -1 35 -1695802177 -572264454 1862061148 1040056316
            1441549756 1476231039 -241793 1702854526</internalNodes>
          <leafValues>
            -2.5181552767753601e-01 3.1539651751518250e-01</leafValues></_>
        <_>
          <internalNodes>
            0 -1 138 1743781499 -1082220067 -619135824 -843055141
            1738273789 -1803798155 -642190084 218103294</internalNodes>
          <leafValues>
            -2.9973381757736206e-01 2.7117574214935303e-01</leafValues></_>
        <_>
          <internalNodes>
            0 -1 112 530677497 1044184286 -1857621761 -206116 1530428277
            -281433113 2053667036 -16974348</internalNodes>
          <leafValues>
            -3.9826944470405579e-01 2.0286870002746582e-01</leafValues></_>
        <_>
          <internalNodes>
            0 -1 158 2069888687 447768792 -534171398 -1926342532
            1523432340 1836178357 -7286948 590610262</internalNodes>
          <leafValues>
            -3.4706836938858032e-01 2.2971768677234650e-01</leafValues></_>
        <_>
          <internalNodes>
            0 -1 24 1826527999 -1093344515 -238694273 -2565194 -95527684
            1458924357 -293852372 2113942356</internalNodes>
          <leafValues>
            -5.1896840333938599e-01 1.4841395616531372e-01</leafValues></_>
        <_>
          <internalNodes>
            0 -1 50 436872751 1734230948 -702101916 1302617602 993766381
            2146812409 2129939263 1973378618</internalNodes>
          <leafValues>
            -3.8507893681526184e-01 1.9489200413227081e-01</leafValues></_>
        <_>
          <internalNodes>
            0 -1 16 -285750529 -289220402 -291847644 1983822788
            1357863661 -1526758499 -2273977 -187223195</internalNodes>
          <leafValues>
            -3.4568023681640625e-01 2.1892100572586060e-01</leafValues></_>
        <_>
          <internalNodes>
            0 -1 99 2113666795 1815674845 -16797731 2143268836
            -555475082 527826428 2147356666 1946124159</internalNodes>
          <leafValues>
            -2.0852015912532806e-01 3.8428410887718201e-01</leafValues></_>
        <_>
          <internalNodes>
            0 -1 64 -544767407 -820187478 -289530775 -139034663
            -839950618 1607335916 -838934533 1606373119</internalNodes>
          <leafValues>
            -1.9547988474369049e-01 4.1791477799415588e-01</leafValues></_>
        <_>
          <internalNodes>
            0 -1 104 -2012217039 2133443191 -1856039969 -704746608
            -1970095366 -100986471 -1629143315 -1363399952</internalNodes>
          <leafValues>
            -3.6468625068664551e-01 2.2884921729564667e-01</leafValues></_>
        <_>
          <internalNodes>
            0 -1 185 -1812140878 -1374626294 -1025855056 685012684
            -14942233 737686255 2147332600 -1936411220</internalNodes>
          <leafValues>
            -4.7812104225158691e-01 1.5747281908988953e-01</leafValues></_>
        <_>
          <internalNodes>
            0 -1 143 985480945 209443293 1350302203 -409279060
            -223801996 -5535782 2063368036 -424214668</internalNodes>
          <leafValues>
            -4.6940883994102478e-01 1.6255106031894684e-01</leafValues></_></weakClassifiers></_>
    <!-- stage 9 -->
    <_>
      <maxWeakCount>29</maxWeakCount>
      <stageThreshold>-2.2524650096893311e+00</stageThreshold>
      <weakClassifiers>
        <_>
          <internalNodes>
            0 -1 177 -2105569 -67109889 1527249915 -1057793 -17043521
            -1050465 -69731345 -1025</internalNodes>
          <leafValues>
            -7.8578311204910278e-01 -1.2190476059913635e-01</leafValues></_>
        <_>
          <internalNodes>
            0 -1 45 1361150114 -35985 830773085 2012213199 -1140858897
            -1797 2145574911 2145378043</internalNodes>
          <leafValues>
            -6.1831855773925781e-01 5.6943450123071671e-02</leafValues></_>
        <_>
          <internalNodes>
            0 -1 42 -18911299 -2392097 -414081 2147188735 -1342231460
            -100554 -8954001 -13402253</internalNodes>
          <leafValues>
            -3.0564987659454346e-01 3.3611094951629639e-01</leafValues></_>
        <_>
          <internalNodes>
            0 -1 36 478342377 1610529742 -1531706628 1878391644
            1495070012 -547457122 -56693761 1171250842</internalNodes>
          <leafValues>
            -3.3520656824111938e-01 2.6716148853302002e-01</leafValues></_>
        <_>
          <internalNodes>
            0 -1 160 -469844513 -1129802920 1993038335 -1073938948
            1781905917 1035205627 -1879490051 -1359287044</internalNodes>
          <leafValues>
            -3.0974721908569336e-01 2.7772954106330872e-01</leafValues></_>
        <_>
          <internalNodes>
            0 -1 127 -1235884297 1061196272 -1520501776 -1075185840
            1467503604 1536928236 -18720018 905969527</internalNodes>
          <leafValues>
            -2.8174826502799988e-01 2.9279658198356628e-01</leafValues></_>
        <_>
          <internalNodes>
            0 -1 141 2134767320 1061082915 -1884781692 1069451016
            -310410004 987701841 -1197146386 779050991</internalNodes>
          <leafValues>
            -2.9500758647918701e-01 2.7057904005050659e-01</leafValues></_>
        <_>
          <internalNodes>
            0 -1 20 -825495809 -822285321 1444868136 -86183270
            -752066338 559900781 -25734644 -143201516</internalNodes>
          <leafValues>
            -3.7852650880813599e-01 2.0618121325969696e-01</leafValues></_>
        <_>
          <internalNodes>
            0 -1 56 955478975 1341699033 -875506736 -1007755276
            -627810988 -571180710 -1074636448 1073699679</internalNodes>
          <leafValues>
            -2.6679533720016479e-01 2.7206331491470337e-01</leafValues></_>
        <_>
          <internalNodes>
            0 -1 41 -16777793 1727873342 -85526274 -399060004 1674987568
            2048201061 -643793688 -80709820</internalNodes>
          <leafValues>
            -4.3489074707031250e-01 1.7276759445667267e-01</leafValues></_>
        <_>
          <internalNodes>
            0 -1 162 -1807711228 -2327603 421084539 2145172889 -38919012
            -50861831 972652414 2102490433</internalNodes>
          <leafValues>
            -3.8316839933395386e-01 1.9227403402328491e-01</leafValues></_>
        <_>
          <internalNodes>
            0 -1 33 -672338721 2142990074 -258324 1778339410 1560116733
            -310509569 1862164350 1694334791</internalNodes>
          <leafValues>
            -2.5117608904838562e-01 2.9934155941009521e-01</leafValues></_>
        <_>
          <internalNodes>
            0 -1 71 -1194383775 -520216105 -82521761 1493098485
            -1710991312 -78483335 -76530896 -81625548</internalNodes>
          <leafValues>
            -4.5833757519721985e-01 1.5785859525203705e-01</leafValues></_>
        <_>
          <internalNodes>
            0 -1 102 2130599799 528012596 -427304976 1859059708
            1747582460 1605954552 1006567252 469711806</internalNodes>
          <leafValues>
            -3.2391211390495300e-01 2.2396925091743469e-01</leafValues></_>
        <_>
          <internalNodes>
            0 -1 129 -1923122241 1035010044 -1075643183 -1078001676
            536641020 2136801140 -964755490 532642679</internalNodes>
          <leafValues>
            -2.4194073677062988e-01 3.0156204104423523e-01</leafValues></_>
        <_>
          <internalNodes>
            0 -1 128 2138304447 -1094003943 -778045193 -1351429634
            1874426724 -70553202 -69140504 -1359154444</internalNodes>
          <leafValues>
            -3.8965466618537903e-01 1.9155554473400116e-01</leafValues></_>
        <_>
          <internalNodes>
            0 -1 62 248199225 -1763250580 -716779972 1035859840
            2108316645 2143283900 -1080288674 1926986622</internalNodes>
          <leafValues>
            -3.3487465977668762e-01 2.3083703219890594e-01</leafValues></_>
        <_>
          <internalNodes>
            0 -1 101 932528127 1006425564 -766062110 -357793282
            -100902060 -69663251 -541267660 -67470096</internalNodes>
          <leafValues>
            -4.1734224557876587e-01 1.7519420385360718e-01</leafValues></_>
        <_>
          <internalNodes>
            0 -1 88 751167755 2117661796 -183305324 -136706 -605535008
            156508297 -353576002 668957694</internalNodes>
          <leafValues>
            -2.6983699202537537e-01 2.6584467291831970e-01</leafValues></_>
        <_>
          <internalNodes>
            0 -1 139 -1128133516 -552847986 -1126590743 -1614439019
            -97462832 2077059779 644641721 794566172</internalNodes>
          <leafValues>
            -4.1276925802230835e-01 1.7245325446128845e-01</leafValues></_>
        <_>
          <internalNodes>
            0 -1 25 2129358538 1004428656 -460403384 -1343235602
            -10626152 1422925808 -240853266 1112886900</internalNodes>
          <leafValues>
            -4.3093177676200867e-01 1.5664385259151459e-01</leafValues></_>
        <_>
          <internalNodes>
            0 -1 156 -1074332683 -1691025804 -1128268548 -1087709456
            1567973368 1853284341 -1124153606 800849918</internalNodes>
          <leafValues>
            -2.5274851918220520e-01 2.9185643792152405e-01</leafValues></_>
        <_>
          <internalNodes>
            0 -1 97 1039892251 -3408460 -1090847056 -303301384
            2102288116 1484717532 -41506 1065332474</internalNodes>
          <leafValues>
            -2.5775977969169617e-01 2.8335502743721008e-01</leafValues></_>
        <_>
          <internalNodes>
            0 -1 10 -422580597 -435787360 -828904374 -239287672
            -589378856 -306740606 -1462759285 1385193956</internalNodes>
          <leafValues>
            -3.6067152023315430e-01 1.9081084430217743e-01</leafValues></_>
        <_>
          <internalNodes>
            0 -1 94 -57223181 957403836 269922956 -1357990412 1503685096
            427076296 -1161946276 752123764</internalNodes>
          <leafValues>
            -6.9877529144287109e-01 9.4900444149971008e-02</leafValues></_>
        <_>
          <internalNodes>
            0 -1 38 985568953 514511516 -727921896 -1342326096
            1245190584 -591517956 -1431418466 886011854</internalNodes>
          <leafValues>
            -2.9188004136085510e-01 2.3350906372070312e-01</leafValues></_>
        <_>
          <internalNodes>
            0 -1 136 1409020535 -1959919376 -753154824 -1361252912
            -1156367564 1031385249 -929923980 617083898</internalNodes>
          <leafValues>
            -4.2351207137107849e-01 1.6360305249691010e-01</leafValues></_>
        <_>
          <internalNodes>
            0 -1 106 1452354102 458519548 -846335540 2147252725
            -1728669292 2063183017 -2115217026 973045222</internalNodes>
          <leafValues>
            -3.4236419200897217e-01 2.0297005772590637e-01</leafValues></_>
        <_>
          <internalNodes>
            0 -1 120 947141667 827121612 -474418319 1827984860 -1281452
            -1145168216 -75747003 -50561164</internalNodes>
          <leafValues>
            -4.5953461527824402e-01 1.4958430826663971e-01</leafValues></_></weakClassifiers></_>
    <!-- stage 10 -->
    <_>
      <maxWeakCount>27</maxWeakCount>
      <stageThreshold>-2.4035470485687256e+00</stageThreshold>
      <weakClassifiers>
        <_>
          <internalNodes>
            0 -1 180 -264198 -146410541 -1827933808 -79692033 -740560968
            -69215263 -73139206 2143289343</internalNodes>
          <leafValues>
            -8.0139803886413574e-01 -3.0445033311843872e-01</leafValues></_>
        <_>
          <internalNodes>
            0 -1 140 -41218043 -35654505 -742523937 -582273633
            -1121340792 -299019 -1373406277 -33860673</internalNodes>
          <leafValues>
            -5.2713292837142944e-01 1.2559705972671509e-01</leafValues></_>
        <_>
          <internalNodes>
            0 -1 186 -1309147689 -1449247201 -719683887 -1359072003
            -1645495363 -1396868690 -38293505 -1997619969</internalNodes>
          <leafValues>
            -3.7168890237808228e-01 2.8163847327232361e-01</leafValues></_>
        <_>
          <internalNodes>
            0 -1 151 -115360623 1060699096 -1155754076 -1112542211
            -715367480 2136734648 -67208594 1006600054</internalNodes>
          <leafValues>
            -3.0981409549713135e-01 2.9276853799819946e-01</leafValues></_>
        <_>
          <internalNodes>
            0 -1 54 509349520 796917628 934047629 -573075457 -855703554
            -830677388 -13856849 1465900830</internalNodes>
          <leafValues>
            -2.0261800289154053e-01 3.6200219392776489e-01</leafValues></_>
        <_>
          <internalNodes>
            0 -1 14 -824316170 -626335766 1725746788 -85272624
            1166951402 1301351613 871880893 -212600361</internalNodes>
          <leafValues>
            -2.9563960433006287e-01 2.6361152529716492e-01</leafValues></_>
        <_>
          <internalNodes>
            0 -1 47 -1062408533 1489287594 1552633769 1106854130
            -1550978569 -335914835 178481995 -473476252</internalNodes>
          <leafValues>
            -2.8887709975242615e-01 2.5532245635986328e-01</leafValues></_>
        <_>
          <internalNodes>
            0 -1 12 -537999361 1324283900 -32062754 -715926072
            1086118654 -806444660 -521554 1350561623</internalNodes>
          <leafValues>
            -2.7358278632164001e-01 2.6592659950256348e-01</leafValues></_>
        <_>
          <internalNodes>
            0 -1 152 2146784663 229282780 -207669006 -1376861284
            -882869772 -876404308 -75694092 -151191820</internalNodes>
          <leafValues>
            -4.0377911925315857e-01 1.7458392679691315e-01</leafValues></_>
        <_>
          <internalNodes>
            0 -1 121 -219016681 1592632237 -749547052 -1900170476
            1767766480 2136574705 -84240134 926374903</internalNodes>
          <leafValues>
            -2.7078843116760254e-01 2.8199657797813416e-01</leafValues></_>
        <_>
          <internalNodes>
            0 -1 157 2101328111 -1374108708 -640164031 -304162852
            1929148785 -586438468 -1348048408 -16843276</internalNodes>
          <leafValues>
            -3.5337221622467041e-01 1.9529581069946289e-01</leafValues></_>
        <_>
          <internalNodes>
            0 -1 51 -1196748133 -630150244 -982470052 -811336510
            -1740895336 1337873338 -63001682 1845452506</internalNodes>
          <leafValues>
            -2.9560080170631409e-01 2.5666105747222900e-01</leafValues></_>
        <_>
          <internalNodes>
            0 -1 115 536838095 502562034 -16781452 -1360331532
            1819633014 1062501628 -536977700 1069530687</internalNodes>
          <leafValues>
            -2.6455742120742798e-01 2.9013317823410034e-01</leafValues></_>
        <_>
          <internalNodes>
            0 -1 181 -5279995 -11144276 -182166628 -136465716 -209208328
            -107943767 -284299560 -1154417708</internalNodes>
          <leafValues>
            -4.1469743847846985e-01 1.7635488510131836e-01</leafValues></_>
        <_>
          <internalNodes>
            0 -1 165 -8388829 523108351 -1090865280 229572604 -42665300
            2138013566 -1333795604 -184551553</internalNodes>
          <leafValues>
            -2.6111340522766113e-01 2.7230250835418701e-01</leafValues></_>
        <_>
          <internalNodes>
            0 -1 134 2120211259 529698842 -826345744 -402694961
            -148325540 2105249010 1813837772 2104485367</internalNodes>
          <leafValues>
            -2.7677741646766663e-01 2.5699159502983093e-01</leafValues></_>
        <_>
          <internalNodes>
            0 -1 49 447270604 984789674 -681309153 -168489152 -556121092
            1067078323 2074741484 1073045351</internalNodes>
          <leafValues>
            -3.7288877367973328e-01 1.8538114428520203e-01</leafValues></_>
        <_>
          <internalNodes>
            0 -1 48 492645026 250605420 1141149328 214912984 -1419887870
            -75848787 520580610 1534784744</internalNodes>
          <leafValues>
            -4.7306537628173828e-01 1.4045040309429169e-01</leafValues></_>
        <_>
          <internalNodes>
            0 -1 161 972795888 -2067865968 -217851761 -1375798796
            950082500 731613577 -121587267 -1929460484</internalNodes>
          <leafValues>
            -4.0627622604370117e-01 1.6318134963512421e-01</leafValues></_>
        <_>
          <internalNodes>
            0 -1 55 1072430823 509149173 -270467086 -2654248 1551650684
            242548725 -1225371972 2129092443</internalNodes>
          <leafValues>
            -2.4276685714721680e-01 2.8494566679000854e-01</leafValues></_>
        <_>
          <internalNodes>
            0 -1 98 1058913279 737425405 -757014786 -1436625928
            -1071097064 -1747387205 -604218572 2062866160</internalNodes>
          <leafValues>
            -6.0933184623718262e-01 1.1629705131053925e-01</leafValues></_>
        <_>
          <internalNodes>
            0 -1 87 1957093243 -1347891090 441235647 -402860202
            2120121322 -72417106 176978652 -390299792</internalNodes>
          <leafValues>
            -2.9927459359169006e-01 2.2034120559692383e-01</leafValues></_>
        <_>
          <internalNodes>
            0 -1 168 -268501201 485556220 -33719044 -843448584
            -319455336 1064632060 -524578 2100035582</internalNodes>
          <leafValues>
            -2.0845942199230194e-01 3.0867382884025574e-01</leafValues></_>
        <_>
          <internalNodes>
            0 -1 172 2001454351 -1107366465 1868984311 2069036201
            -21704064 -60850316 -793461506 -364053656</internalNodes>
          <leafValues>
            -2.3141525685787201e-01 2.8606042265892029e-01</leafValues></_>
        <_>
          <internalNodes>
            0 -1 142 974791120 -1154195224 -641248720 -1349459732
            777320210 -86661446 724851546 1060852695</internalNodes>
          <leafValues>
            -3.8593050837516785e-01 1.8084262311458588e-01</leafValues></_>
        <_>
          <internalNodes>
            0 -1 90 1346298593 532083700 -383860212 -1610680132
            1491885044 2023860387 -6390804 637238644</internalNodes>
          <leafValues>
            -3.7741717696189880e-01 1.7720998823642731e-01</leafValues></_>
        <_>
          <internalNodes>
            0 -1 84 -33570817 -629374980 -285855810 -4426 -8594095
            1016365054 1073659774 2130685951</internalNodes>
          <leafValues>
            -1.7754441499710083e-01 3.6720931529998779e-01</leafValues></_></weakClassifiers></_></stages>
  <features>
    <_>
      <rect>
        0 0 2 2</rect></_>
    <_>
      <rect>
        0 0 4 1</rect></_>
    <_>
      <rect>
        0 0 5 2</rect></_>
    <_>
      <rect>
        0 0 5 3</rect></_>
    <_>
      <rect>
        0 1 3 5</rect></_>
    <_>
      <rect>
        0 1 5 4</rect></_>
    <_>
      <rect>
        0 2 2 2</rect></_>
    <_>
      <rect>
        0 2 3 4</rect></_>
    <_>
      <rect>
        0 3 1 1</rect></_>
    <_>
      <rect>
        0 3 1 2</rect></_>
    <_>
      <rect>
        0 4 1 1</rect></_>
    <_>
      <rect>
        0 4 3 4</rect></_>
    <_>
      <rect>
        0 5 2 2</rect></_>
    <_>
      <rect>
        0 5 3 2</rect></_>
    <_>
      <rect>
        0 6 1 1</rect></_>
    <_>
      <rect>
        0 6 2 2</rect></_>
    <_>
      <rect>
        0 7 1 1</rect></_>
    <_>
      <rect>
        0 7 2 1</rect></_>
    <_>
      <rect>
        0 7 2 2</rect></_>
    <_>
      <rect>
        0 7 3 2</rect></_>
    <_>
      <rect>
        0 8 1 1</rect></_>
    <_>
      <rect>
        0 9 1 2</rect></_>
    <_>
      <rect>
        0 9 3 2</rect></_>
    <_>
      <rect>
        0 10 1 1</rect></_>
    <_>
      <rect>
        0 10 1 2</rect></_>
    <_>
      <rect>
        0 10 4 2</rect></_>
    <_>
      <rect>
        0 13 1 1</rect></_>
    <_>
      <rect>
        0 13 2 1</rect></_>
    <_>
      <rect>
        0 13 3 1</rect></_>
    <_>
      <rect>
        1 0 2 1</rect></_>
    <_>
      <rect>
        1 0 3 1</rect></_>
    <_>
      <rect>
        1 0 5 2</rect></_>
    <_>
      <rect>
        1 1 3 3</rect></_>
    <_>
      <rect>
        1 3 2 2</rect></_>
    <_>
      <rect>
        1 3 3 2</rect></_>
    <_>
      <rect>
        1 4 2 2</rect></_>
    <_>
      <rect>
        1 4 3 3</rect></_>
    <_>
      <rect>
        1 5 1 2</rect></_>
    <_>
      <rect>
        1 6 2 2</rect></_>
    <_>
      <rect>
        1 8 2 2</rect></_>
    <_>
      <rect>
        1 8 3 2</rect></_>
    <_>
      <rect>
        1 11 1 1</rect></_>
    <_>
      <rect>
        1 13 1 1</rect></_>
    <_>
      <rect>
        1 13 2 1</rect></_>
    <_>
      <rect>
        2 0 2 1</rect></_>
    <_>
      <rect>
        2 0 4 2</rect></_>
    <_>
      <rect>
        2 1 1 1</rect></_>
    <_>
      <rect>
        2 1 2 1</rect></_>
    <_>
      <rect>
        2 1 4 3</rect></_>
    <_>
      <rect>
        2 2 2 2</rect></_>
    <_>
      <rect>
        2 3 3 2</rect></_>
    <_>
      <rect>
        2 5 3 2</rect></_>
    <_>
      <rect>
        2 5 3 3</rect></_>
    <_>
      <rect>
        2 6 3 2</rect></_>
    <_>
      <rect>
        2 6 4 2</rect></_>
    <_>
      <rect>
        2 8 2 2</rect></_>
    <_>
      <rect>
        2 9 2 2</rect></_>
    <_>
      <rect>
        2 9 3 2</rect></_>
    <_>
      <rect>
        2 10 2 1</rect></_>
    <_>
      <rect>
        2 12 1 1</rect></_>
    <_>
      <rect>
        3 0 2 1</rect></_>
    <_>
      <rect>
        3 1 4 2</rect></_>
    <_>
      <rect>
        3 3 2 2</rect></_>
    <_>
      <rect>
        3 3 2 3</rect></_>
    <_>
      <rect>
        3 5 4 2</rect></_>
    <_>
      <rect>
        3 6 1 1</rect></_>
    <_>
      <rect>
        3 7 1 1</rect></_>
    <_>
      <rect>
        3 8 2 2</rect></_>
    <_>
      <rect>
        3 9 3 1</rect></_>
    <_>
      <rect>
        3 10 2 2</rect></_>
    <_>
      <rect>
        3 10 4 2</rect></_>
    <_>
      <rect>
        3 13 1 1</rect></_>
    <_>
      <rect>
        4 3 2 2</rect></_>
    <_>
      <rect>
        4 3 3 3</rect></_>
    <_>
      <rect>
        4 3 3 4</rect></_>
    <_>
      <rect>
        4 4 2 3</rect></_>
    <_>
      <rect>
        4 4 3 2</rect></_>
    <_>
      <rect>
        4 6 1 1</rect></_>
    <_>
      <rect>
        4 7 1 1</rect></_>
    <_>
      <rect>
        4 7 3 2</rect></_>
    <_>
      <rect>
        4 7 4 3</rect></_>
    <_>
      <rect>
        4 8 1 1</rect></_>
    <_>
      <rect>
        4 8 3 2</rect></_>
    <_>
      <rect>
        4 9 1 1</rect></_>
    <_>
      <rect>
        4 10 2 2</rect></_>
    <_>
      <rect>
        4 12 1 1</rect></_>
    <_>
      <rect>
        4 13 1 1</rect></_>
    <_>
      <rect>
        5 3 1 1</rect></_>
    <_>
      <rect>
        5 3 2 3</rect></_>
    <_>
      <rect>
        5 3 3 2</rect></_>
    <_>
      <rect>
        5 4 2 2</rect></_>
    <_>
      <rect>
        5 5 2 2</rect></_>
    <_>
      <rect>
        5 6 2 2</rect></_>
    <_>
      <rect>
        5 6 3 2</rect></_>
    <_>
      <rect>
        5 7 2 2</rect></_>
    <_>
      <rect>
        5 8 1 1</rect></_>
    <_>
      <rect>
        5 8 2 2</rect></_>
    <_>
      <rect>
        5 8 3 2</rect></_>
    <_>
      <rect>
        5 9 1 1</rect></_>
    <_>
      <rect>
        5 9 2 2</rect></_>
    <_>
      <rect>
        5 10 2 2</rect></_>
    <_>
      <rect>
        5 11 1 1</rect></_>
    <_>
      <rect>
        5 12 2 1</rect></_>
    <_>
      <rect>
        5 13 1 1</rect></_>
    <_>
      <rect>
        6 0 1 1</rect></_>
    <_>
      <rect>
        6 0 3 1</rect></_>
    <_>
      <rect>
        6 1 2 3</rect></_>
    <_>
      <rect>
        6 1 3 2</rect></_>
    <_>
      <rect>
        6 3 3 2</rect></_>
    <_>
      <rect>
        6 4 1 1</rect></_>
    <_>
      <rect>
        6 4 2 3</rect></_>
    <_>
      <rect>
        6 5 1 1</rect></_>
    <_>
      <rect>
        6 6 1 1</rect></_>
    <_>
      <rect>
        6 7 1 1</rect></_>
    <_>
      <rect>
        6 8 3 1</rect></_>
    <_>
      <rect>
        6 9 2 2</rect></_>
    <_>
      <rect>
        6 12 1 1</rect></_>
    <_>
      <rect>
        7 0 3 1</rect></_>
    <_>
      <rect>
        7 1 3 3</rect></_>
    <_>
      <rect>
        7 1 3 4</rect></_>
    <_>
      <rect>
        7 3 1 1</rect></_>
    <_>
      <rect>
        7 3 2 3</rect></_>
    <_>
      <rect>
        7 4 1 1</rect></_>
    <_>
      <rect>
        7 4 2 3</rect></_>
    <_>
      <rect>
        7 4 3 2</rect></_>
    <_>
      <rect>
        7 4 3 4</rect></_>
    <_>
      <rect>
        7 5 1 1</rect></_>
    <_>
      <rect>
        7 5 2 2</rect></_>
    <_>
      <rect>
        7 7 1 1</rect></_>
    <_>
      <rect>
        7 7 2 2</rect></_>
    <_>
      <rect>
        7 7 3 2</rect></_>
    <_>
      <rect>
        7 8 1 1</rect></_>
    <_>
      <rect>
        7 8 3 2</rect></_>
    <_>
      <rect>
        7 10 2 2</rect></_>
    <_>
      <rect>
        7 10 3 1</rect></_>
    <_>
      <rect>
        7 10 3 2</rect></_>
    <_>
      <rect>
        7 11 2 1</rect></_>
    <_>
      <rect>
        7 13 2 1</rect></_>
    <_>
      <rect>
        7 13 3 1</rect></_>
    <_>
      <rect>
        8 0 1 1</rect></_>
    <_>
      <rect>
        8 0 2 1</rect></_>
    <_>
      <rect>
        8 2 2 2</rect></_>
    <_>
      <rect>
        8 2 2 3</rect></_>
    <_>
      <rect>
        8 5 1 1</rect></_>
    <_>
      <rect>
        8 5 2 3</rect></_>
    <_>
      <rect>
        8 8 1 1</rect></_>
    <_>
      <rect>
        8 11 1 1</rect></_>
    <_>
      <rect>
        8 13 1 1</rect></_>
    <_>
      <rect>
        9 0 1 1</rect></_>
    <_>
      <rect>
        9 0 2 1</rect></_>
    <_>
      <rect>
        9 4 2 2</rect></_>
    <_>
      <rect>
        9 5 2 2</rect></_>
    <_>
      <rect>
        9 6 1 1</rect></_>
    <_>
      <rect>
        9 6 2 2</rect></_>
    <_>
      <rect>
        9 7 1 1</rect></_>
    <_>
      <rect>
        9 8 1 1</rect></_>
    <_>
      <rect>
        9 8 2 2</rect></_>
    <_>
      <rect>
        9 9 1 1</rect></_>
    <_>
      <rect>
        9 9 2 2</rect></_>
    <_>
      <rect>
        9 10 1 1</rect></_>
    <_>
      <rect>
        9 12 1 1</rect></_>
    <_>
      <rect>
        9 13 1 1</rect></_>
    <_>
      <rect>
        10 0 2 2</rect></_>
    <_>
      <rect>
        10 1 2 3</rect></_>
    <_>
      <rect>
        10 4 2 3</rect></_>
    <_>
      <rect>
        10 5 2 1</rect></_>
    <_>
      <rect>
        10 6 1 1</rect></_>
    <_>
      <rect>
        10 6 2 1</rect></_>
    <_>
      <rect>
        10 8 2 2</rect></_>
    <_>
      <rect>
        10 13 1 1</rect></_>
    <_>
      <rect>
        10 13 2 1</rect></_>
    <_>
      <rect>
        11 1 1 1</rect></_>
    <_>
      <rect>
        11 2 1 1</rect></_>
    <_>
      <rect>
        11 7 1 1</rect></_>
    <_>
      <rect>
        11 12 1 1</rect></_>
    <_>
      <rect>
        12 3 1 1</rect></_>
    <_>
      <rect>
        12 13 1 1</rect></_>
    <_>
      <rect>
        13 0 1 3</rect></_>
    <_>
      <rect>
        13 3 1 1</rect></_>
    <_>
      <rect>
        13 4 1 1</rect></_>
    <_>
      <rect>
        13 4 1 3</rect></_>
    <_>
      <rect>
        13 5 1 3</rect></_>
    <_>
      <rect>
        13 6 1 1</rect></_>
    <_>
      <rect>
        13 6 1 3</rect></_>
    <_>
      <rect>
        13 7 1 1</rect></_>
    <_>
      <rect>
        13 12 1 1</rect></_>
    <_>
      <rect>
        13 13 1 1</rect></_></features></cascade>
</opencv_storage>
