<?xml version="1.0"?>
<opencv_storage>
<stage2>
  <maxWeakCount>11</maxWeakCount>
  <stageThreshold>-2.1451959609985352e+00</stageThreshold>
  <weakClassifiers>
    <_>
      <internalNodes>
        0 -1 1010 -18665 -513 -8388609 -1 -1 -1 -1 -1</internalNodes>
      <leafValues>
        -8.3727383613586426e-01 2.7452829480171204e-01</leafValues></_>
    <_>
      <internalNodes>
        0 -1 1578 -217 -2097153 -268437522 -2049 -152044800 -83890321 -2
        -1</internalNodes>
      <leafValues>
        -5.5384224653244019e-01 4.7003266215324402e-01</leafValues></_>
    <_>
      <internalNodes>
        0 -1 1084 -1073742337 -1090715651 -131073 -271646722 -230148
        -84934658 -197260 -285409420</internalNodes>
      <leafValues>
        -5.8069950342178345e-01 3.5226422548294067e-01</leafValues></_>
    <_>
      <internalNodes>
        0 -1 872 2113912831 2004647927 -16385 -1073938435 -9151276
        2146861055 -491524 -1015952</internalNodes>
      <leafValues>
        -5.2057695388793945e-01 3.5739037394523621e-01</leafValues></_>
    <_>
      <internalNodes>
        0 -1 61 -1193562130 -689115394 -18548740 -573022568 2143288319
        -537067782 2130574270 1576893947</internalNodes>
      <leafValues>
        -5.3569161891937256e-01 3.2126531004905701e-01</leafValues></_>
    <_>
      <internalNodes>
        0 -1 844 -822116609 486440957 -83935367 -1359544338 2122207100
        -1073741839 -654557364 -16973964</internalNodes>
      <leafValues>
        -5.7909846305847168e-01 2.7567481994628906e-01</leafValues></_>
    <_>
      <internalNodes>
        0 -1 787 889681802 -275972100 -34803748 -1187948 2073688812
        -2034756 -5443586 1565904602</internalNodes>
      <leafValues>
        -5.0724816322326660e-01 3.0578571557998657e-01</leafValues></_>
    <_>
      <internalNodes>
        0 -1 1478 724662267 -1371783427 -268435459 -1375732228
        1014822909 -1375797315 2147418109 -1929454084</internalNodes>
      <leafValues>
        -4.8183655738830566e-01 3.1175836920738220e-01</leafValues></_>
    <_>
      <internalNodes>
        0 -1 507 -286288215 1071578886 1962868476 2142207940 -545661954
        524599294 -121835558 351764439</internalNodes>
      <leafValues>
        -4.2389464378356934e-01 3.6956697702407837e-01</leafValues></_>
    <_>
      <internalNodes>
        0 -1 1148 2130392832 -542639114 1405025148 1843260412 -222324512
        -16777232 2131820188 894564081</internalNodes>
      <leafValues>
        -7.0741677284240723e-01 2.0263545215129852e-01</leafValues></_>
    <_>
      <internalNodes>
        0 -1 1174 1761554359 -1493501188 -539107523 -285409478 -8631427
        -197937 -65676 -51585164</internalNodes>
      <leafValues>
        -5.2572602033615112e-01 2.6402375102043152e-01</leafValues></_></weakClassifiers></stage2>
</opencv_storage>
