<?xml version="1.0"?>
<opencv_storage>
<stage10>
  <maxWeakCount>27</maxWeakCount>
  <stageThreshold>-2.4035470485687256e+00</stageThreshold>
  <weakClassifiers>
    <_>
      <internalNodes>
        0 -1 1580 -264198 -146410541 -1827933808 -79692033 -740560968
        -69215263 -73139206 2143289343</internalNodes>
      <leafValues>
        -8.0139803886413574e-01 -3.0445033311843872e-01</leafValues></_>
    <_>
      <internalNodes>
        0 -1 1245 -41218043 -35654505 -742523937 -582273633 -1121340792
        -299019 -1373406277 -33860673</internalNodes>
      <leafValues>
        -5.2713292837142944e-01 1.2559705972671509e-01</leafValues></_>
    <_>
      <internalNodes>
        0 -1 1599 -1309147689 -1449247201 -719683887 -1359072003
        -1645495363 -1396868690 -38293505 -1997619969</internalNodes>
      <leafValues>
        -3.7168890237808228e-01 2.8163847327232361e-01</leafValues></_>
    <_>
      <internalNodes>
        0 -1 1368 -115360623 1060699096 -1155754076 -1112542211
        -715367480 2136734648 -67208594 1006600054</internalNodes>
      <leafValues>
        -3.0981409549713135e-01 2.9276853799819946e-01</leafValues></_>
    <_>
      <internalNodes>
        0 -1 510 509349520 796917628 934047629 -573075457 -855703554
        -830677388 -13856849 1465900830</internalNodes>
      <leafValues>
        -2.0261800289154053e-01 3.6200219392776489e-01</leafValues></_>
    <_>
      <internalNodes>
        0 -1 125 -824316170 -626335766 1725746788 -85272624 1166951402
        1301351613 871880893 -212600361</internalNodes>
      <leafValues>
        -2.9563960433006287e-01 2.6361152529716492e-01</leafValues></_>
    <_>
      <internalNodes>
        0 -1 425 -1062408533 1489287594 1552633769 1106854130
        -1550978569 -335914835 178481995 -473476252</internalNodes>
      <leafValues>
        -2.8887709975242615e-01 2.5532245635986328e-01</leafValues></_>
    <_>
      <internalNodes>
        0 -1 114 -537999361 1324283900 -32062754 -715926072 1086118654
        -806444660 -521554 1350561623</internalNodes>
      <leafValues>
        -2.7358278632164001e-01 2.6592659950256348e-01</leafValues></_>
    <_>
      <internalNodes>
        0 -1 1370 2146784663 229282780 -207669006 -1376861284 -882869772
        -876404308 -75694092 -151191820</internalNodes>
      <leafValues>
        -4.0377911925315857e-01 1.7458392679691315e-01</leafValues></_>
    <_>
      <internalNodes>
        0 -1 1168 -219016681 1592632237 -749547052 -1900170476
        1767766480 2136574705 -84240134 926374903</internalNodes>
      <leafValues>
        -2.7078843116760254e-01 2.8199657797813416e-01</leafValues></_>
    <_>
      <internalNodes>
        0 -1 1386 2101328111 -1374108708 -640164031 -304162852
        1929148785 -586438468 -1348048408 -16843276</internalNodes>
      <leafValues>
        -3.5337221622467041e-01 1.9529581069946289e-01</leafValues></_>
    <_>
      <internalNodes>
        0 -1 495 -1196748133 -630150244 -982470052 -811336510
        -1740895336 1337873338 -63001682 1845452506</internalNodes>
      <leafValues>
        -2.9560080170631409e-01 2.5666105747222900e-01</leafValues></_>
    <_>
      <internalNodes>
        0 -1 1102 536838095 502562034 -16781452 -1360331532 1819633014
        1062501628 -536977700 1069530687</internalNodes>
      <leafValues>
        -2.6455742120742798e-01 2.9013317823410034e-01</leafValues></_>
    <_>
      <internalNodes>
        0 -1 1584 -5279995 -11144276 -182166628 -136465716 -209208328
        -107943767 -284299560 -1154417708</internalNodes>
      <leafValues>
        -4.1469743847846985e-01 1.7635488510131836e-01</leafValues></_>
    <_>
      <internalNodes>
        0 -1 1447 -8388829 523108351 -1090865280 229572604 -42665300
        2138013566 -1333795604 -184551553</internalNodes>
      <leafValues>
        -2.6111340522766113e-01 2.7230250835418701e-01</leafValues></_>
    <_>
      <internalNodes>
        0 -1 1229 2120211259 529698842 -826345744 -402694961 -148325540
        2105249010 1813837772 2104485367</internalNodes>
      <leafValues>
        -2.7677741646766663e-01 2.5699159502983093e-01</leafValues></_>
    <_>
      <internalNodes>
        0 -1 445 447270604 984789674 -681309153 -168489152 -556121092
        1067078323 2074741484 1073045351</internalNodes>
      <leafValues>
        -3.7288877367973328e-01 1.8538114428520203e-01</leafValues></_>
    <_>
      <internalNodes>
        0 -1 437 492645026 250605420 1141149328 214912984 -1419887870
        -75848787 520580610 1534784744</internalNodes>
      <leafValues>
        -4.7306537628173828e-01 1.4045040309429169e-01</leafValues></_>
    <_>
      <internalNodes>
        0 -1 1398 972795888 -2067865968 -217851761 -1375798796 950082500
        731613577 -121587267 -1929460484</internalNodes>
      <leafValues>
        -4.0627622604370117e-01 1.6318134963512421e-01</leafValues></_>
    <_>
      <internalNodes>
        0 -1 527 1072430823 509149173 -270467086 -2654248 1551650684
        242548725 -1225371972 2129092443</internalNodes>
      <leafValues>
        -2.4276685714721680e-01 2.8494566679000854e-01</leafValues></_>
    <_>
      <internalNodes>
        0 -1 979 1058913279 737425405 -757014786 -1436625928 -1071097064
        -1747387205 -604218572 2062866160</internalNodes>
      <leafValues>
        -6.0933184623718262e-01 1.1629705131053925e-01</leafValues></_>
    <_>
      <internalNodes>
        0 -1 922 1957093243 -1347891090 441235647 -402860202 2120121322
        -72417106 176978652 -390299792</internalNodes>
      <leafValues>
        -2.9927459359169006e-01 2.2034120559692383e-01</leafValues></_>
    <_>
      <internalNodes>
        0 -1 1465 -268501201 485556220 -33719044 -843448584 -319455336
        1064632060 -524578 2100035582</internalNodes>
      <leafValues>
        -2.0845942199230194e-01 3.0867382884025574e-01</leafValues></_>
    <_>
      <internalNodes>
        0 -1 1490 2001454351 -1107366465 1868984311 2069036201 -21704064
        -60850316 -793461506 -364053656</internalNodes>
      <leafValues>
        -2.3141525685787201e-01 2.8606042265892029e-01</leafValues></_>
    <_>
      <internalNodes>
        0 -1 1266 974791120 -1154195224 -641248720 -1349459732 777320210
        -86661446 724851546 1060852695</internalNodes>
      <leafValues>
        -3.8593050837516785e-01 1.8084262311458588e-01</leafValues></_>
    <_>
      <internalNodes>
        0 -1 939 1346298593 532083700 -383860212 -1610680132 1491885044
        2023860387 -6390804 637238644</internalNodes>
      <leafValues>
        -3.7741717696189880e-01 1.7720998823642731e-01</leafValues></_>
    <_>
      <internalNodes>
        0 -1 863 -33570817 -629374980 -285855810 -4426 -8594095
        1016365054 1073659774 2130685951</internalNodes>
      <leafValues>
        -1.7754441499710083e-01 3.6720931529998779e-01</leafValues></_></weakClassifiers></stage10>
</opencv_storage>
