<?xml version="1.0"?>
<opencv_storage>
<stage4>
  <maxWeakCount>16</maxWeakCount>
  <stageThreshold>-2.5155742168426514e+00</stageThreshold>
  <weakClassifiers>
    <_>
      <internalNodes>
        0 -1 1130 -233 -2097153 -572787201 -1 -67372357 -19969 -1 -1025</internalNodes>
      <leafValues>
        -8.2890146970748901e-01 2.3002886772155762e-01</leafValues></_>
    <_>
      <internalNodes>
        0 -1 22 -636555538 -24577 155766239 1602203455 -8388609
        -69486081 -268439573 -1</internalNodes>
      <leafValues>
        -6.5319174528121948e-01 2.8044098615646362e-01</leafValues></_>
    <_>
      <internalNodes>
        0 -1 1585 -2097885 -1077939409 -1393557728 -1247040661
        -276824252 -1149976707 -86118188 -184553473</internalNodes>
      <leafValues>
        -4.5097407698631287e-01 3.8217821717262268e-01</leafValues></_>
    <_>
      <internalNodes>
        0 -1 129 -287375617 -536952844 2063517410 -17367116 2147408638
        1324772218 -112546 1988099923</internalNodes>
      <leafValues>
        -4.1987562179565430e-01 3.3480980992317200e-01</leafValues></_>
    <_>
      <internalNodes>
        0 -1 672 1056734971 -1930626060 -86312961 -352387338 2063366772
        -16847370 -269058178 -84869132</internalNodes>
      <leafValues>
        -6.0570955276489258e-01 2.3059436678886414e-01</leafValues></_>
    <_>
      <internalNodes>
        0 -1 798 1592620967 2096955358 -332040 -268566588 -587964452
        2141118460 -537075714 749420479</internalNodes>
      <leafValues>
        -2.8780302405357361e-01 4.3876165151596069e-01</leafValues></_>
    <_>
      <internalNodes>
        0 -1 1598 -1703093773 -1368852930 -539820111 754220028
        -805306387 -1968158471 -395268 -855836244</internalNodes>
      <leafValues>
        -4.6630948781967163e-01 2.7506616711616516e-01</leafValues></_>
    <_>
      <internalNodes>
        0 -1 1147 -11586176 1739585788 -258192388 939356153 872235776
        -547356687 1043356475 2130706331</internalNodes>
      <leafValues>
        -4.6953818202018738e-01 2.7077358961105347e-01</leafValues></_>
    <_>
      <internalNodes>
        0 -1 997 2096901503 -15435780 1499160567 -1614875169 -2090512
        -1140956712 2138765020 -1347257448</internalNodes>
      <leafValues>
        -4.5240500569343567e-01 2.7470675110816956e-01</leafValues></_>
    <_>
      <internalNodes>
        0 -1 1211 -170918527 -1080754442 -48894984 -1651115294 -69828748
        220060188 1841159802 1697642098</internalNodes>
      <leafValues>
        -3.8911908864974976e-01 3.2011625170707703e-01</leafValues></_>
    <_>
      <internalNodes>
        0 -1 1508 2011109951 779673072 -1419772944 -1360207936
        1268677748 436176951 -558440972 -184752460</internalNodes>
      <leafValues>
        -6.1000621318817139e-01 2.0950499176979065e-01</leafValues></_>
    <_>
      <internalNodes>
        0 -1 839 -1852407843 1060952532 1600840560 2109601974 1538024956
        139767908 2095741944 1957952510</internalNodes>
      <leafValues>
        -4.5286309719085693e-01 2.7205342054367065e-01</leafValues></_>
    <_>
      <internalNodes>
        0 -1 1213 921534201 -1168352961 -754002561 -287510148 2074683956
        -1178600973 -1141145740 -84902924</internalNodes>
      <leafValues>
        -6.3482636213302612e-01 1.9034335017204285e-01</leafValues></_>
    <_>
      <internalNodes>
        0 -1 360 -1436255505 534430682 -91689364 -33589358 -640194338
        1246794338 2127616216 2088198107</internalNodes>
      <leafValues>
        -3.6167559027671814e-01 3.3495897054672241e-01</leafValues></_>
    <_>
      <internalNodes>
        0 -1 1230 1608515411 1051131900 -237582236 -1912683028 -67375444
        -2055980112 -184817076 -2072130050</internalNodes>
      <leafValues>
        -4.1622301936149597e-01 2.8833082318305969e-01</leafValues></_>
    <_>
      <internalNodes>
        0 -1 565 -2102874829 862909666 -161491979 1293194590 -1153646596
        -1128304129 -106652161 -1443093851</internalNodes>
      <leafValues>
        -3.7721899151802063e-01 3.3941867947578430e-01</leafValues></_></weakClassifiers></stage4>
</opencv_storage>
