<?xml version="1.0"?>
<opencv_storage>
<stage9>
  <maxWeakCount>29</maxWeakCount>
  <stageThreshold>-2.2524650096893311e+00</stageThreshold>
  <weakClassifiers>
    <_>
      <internalNodes>
        0 -1 1562 -2105569 -67109889 1527249915 -1057793 -17043521
        -1050465 -69731345 -1025</internalNodes>
      <leafValues>
        -7.8578311204910278e-01 -1.2190476059913635e-01</leafValues></_>
    <_>
      <internalNodes>
        0 -1 416 1361150114 -35985 830773085 2012213199 -1140858897
        -1797 2145574911 2145378043</internalNodes>
      <leafValues>
        -6.1831855773925781e-01 5.6943450123071671e-02</leafValues></_>
    <_>
      <internalNodes>
        0 -1 395 -18911299 -2392097 -414081 2147188735 -1342231460
        -100554 -8954001 -13402253</internalNodes>
      <leafValues>
        -3.0564987659454346e-01 3.3611094951629639e-01</leafValues></_>
    <_>
      <internalNodes>
        0 -1 300 478342377 1610529742 -1531706628 1878391644 1495070012
        -547457122 -56693761 1171250842</internalNodes>
      <leafValues>
        -3.3520656824111938e-01 2.6716148853302002e-01</leafValues></_>
    <_>
      <internalNodes>
        0 -1 1396 -469844513 -1129802920 1993038335 -1073938948
        1781905917 1035205627 -1879490051 -1359287044</internalNodes>
      <leafValues>
        -3.0974721908569336e-01 2.7772954106330872e-01</leafValues></_>
    <_>
      <internalNodes>
        0 -1 1190 -1235884297 1061196272 -1520501776 -1075185840
        1467503604 1536928236 -18720018 905969527</internalNodes>
      <leafValues>
        -2.8174826502799988e-01 2.9279658198356628e-01</leafValues></_>
    <_>
      <internalNodes>
        0 -1 1265 2134767320 1061082915 -1884781692 1069451016
        -310410004 987701841 -1197146386 779050991</internalNodes>
      <leafValues>
        -2.9500758647918701e-01 2.7057904005050659e-01</leafValues></_>
    <_>
      <internalNodes>
        0 -1 155 -825495809 -822285321 1444868136 -86183270 -752066338
        559900781 -25734644 -143201516</internalNodes>
      <leafValues>
        -3.7852650880813599e-01 2.0618121325969696e-01</leafValues></_>
    <_>
      <internalNodes>
        0 -1 535 955478975 1341699033 -875506736 -1007755276 -627810988
        -571180710 -1074636448 1073699679</internalNodes>
      <leafValues>
        -2.6679533720016479e-01 2.7206331491470337e-01</leafValues></_>
    <_>
      <internalNodes>
        0 -1 385 -16777793 1727873342 -85526274 -399060004 1674987568
        2048201061 -643793688 -80709820</internalNodes>
      <leafValues>
        -4.3489074707031250e-01 1.7276759445667267e-01</leafValues></_>
    <_>
      <internalNodes>
        0 -1 1406 -1807711228 -2327603 421084539 2145172889 -38919012
        -50861831 972652414 2102490433</internalNodes>
      <leafValues>
        -3.8316839933395386e-01 1.9227403402328491e-01</leafValues></_>
    <_>
      <internalNodes>
        0 -1 275 -672338721 2142990074 -258324 1778339410 1560116733
        -310509569 1862164350 1694334791</internalNodes>
      <leafValues>
        -2.5117608904838562e-01 2.9934155941009521e-01</leafValues></_>
    <_>
      <internalNodes>
        0 -1 716 -1194383775 -520216105 -82521761 1493098485 -1710991312
        -78483335 -76530896 -81625548</internalNodes>
      <leafValues>
        -4.5833757519721985e-01 1.5785859525203705e-01</leafValues></_>
    <_>
      <internalNodes>
        0 -1 995 2130599799 528012596 -427304976 1859059708 1747582460
        1605954552 1006567252 469711806</internalNodes>
      <leafValues>
        -3.2391211390495300e-01 2.2396925091743469e-01</leafValues></_>
    <_>
      <internalNodes>
        0 -1 1208 -1923122241 1035010044 -1075643183 -1078001676
        536641020 2136801140 -964755490 532642679</internalNodes>
      <leafValues>
        -2.4194073677062988e-01 3.0156204104423523e-01</leafValues></_>
    <_>
      <internalNodes>
        0 -1 1204 2138304447 -1094003943 -778045193 -1351429634
        1874426724 -70553202 -69140504 -1359154444</internalNodes>
      <leafValues>
        -3.8965466618537903e-01 1.9155554473400116e-01</leafValues></_>
    <_>
      <internalNodes>
        0 -1 621 248199225 -1763250580 -716779972 1035859840 2108316645
        2143283900 -1080288674 1926986622</internalNodes>
      <leafValues>
        -3.3487465977668762e-01 2.3083703219890594e-01</leafValues></_>
    <_>
      <internalNodes>
        0 -1 991 932528127 1006425564 -766062110 -357793282 -100902060
        -69663251 -541267660 -67470096</internalNodes>
      <leafValues>
        -4.1734224557876587e-01 1.7519420385360718e-01</leafValues></_>
    <_>
      <internalNodes>
        0 -1 928 751167755 2117661796 -183305324 -136706 -605535008
        156508297 -353576002 668957694</internalNodes>
      <leafValues>
        -2.6983699202537537e-01 2.6584467291831970e-01</leafValues></_>
    <_>
      <internalNodes>
        0 -1 1240 -1128133516 -552847986 -1126590743 -1614439019
        -97462832 2077059779 644641721 794566172</internalNodes>
      <leafValues>
        -4.1276925802230835e-01 1.7245325446128845e-01</leafValues></_>
    <_>
      <internalNodes>
        0 -1 182 2129358538 1004428656 -460403384 -1343235602 -10626152
        1422925808 -240853266 1112886900</internalNodes>
      <leafValues>
        -4.3093177676200867e-01 1.5664385259151459e-01</leafValues></_>
    <_>
      <internalNodes>
        0 -1 1385 -1074332683 -1691025804 -1128268548 -1087709456
        1567973368 1853284341 -1124153606 800849918</internalNodes>
      <leafValues>
        -2.5274851918220520e-01 2.9185643792152405e-01</leafValues></_>
    <_>
      <internalNodes>
        0 -1 978 1039892251 -3408460 -1090847056 -303301384 2102288116
        1484717532 -41506 1065332474</internalNodes>
      <leafValues>
        -2.5775977969169617e-01 2.8335502743721008e-01</leafValues></_>
    <_>
      <internalNodes>
        0 -1 90 -422580597 -435787360 -828904374 -239287672 -589378856
        -306740606 -1462759285 1385193956</internalNodes>
      <leafValues>
        -3.6067152023315430e-01 1.9081084430217743e-01</leafValues></_>
    <_>
      <internalNodes>
        0 -1 968 -57223181 957403836 269922956 -1357990412 1503685096
        427076296 -1161946276 752123764</internalNodes>
      <leafValues>
        -6.9877529144287109e-01 9.4900444149971008e-02</leafValues></_>
    <_>
      <internalNodes>
        0 -1 329 985568953 514511516 -727921896 -1342326096 1245190584
        -591517956 -1431418466 886011854</internalNodes>
      <leafValues>
        -2.9188004136085510e-01 2.3350906372070312e-01</leafValues></_>
    <_>
      <internalNodes>
        0 -1 1232 1409020535 -1959919376 -753154824 -1361252912
        -1156367564 1031385249 -929923980 617083898</internalNodes>
      <leafValues>
        -4.2351207137107849e-01 1.6360305249691010e-01</leafValues></_>
    <_>
      <internalNodes>
        0 -1 1022 1452354102 458519548 -846335540 2147252725 -1728669292
        2063183017 -2115217026 973045222</internalNodes>
      <leafValues>
        -3.4236419200897217e-01 2.0297005772590637e-01</leafValues></_>
    <_>
      <internalNodes>
        0 -1 1162 947141667 827121612 -474418319 1827984860 -1281452
        -1145168216 -75747003 -50561164</internalNodes>
      <leafValues>
        -4.5953461527824402e-01 1.4958430826663971e-01</leafValues></_></weakClassifiers></stage9>
</opencv_storage>
