<?xml version="1.0"?>
<opencv_storage>
<stage2>
  <maxWeakCount>10</maxWeakCount>
  <stageThreshold>-2.8860816955566406e+00</stageThreshold>
  <weakClassifiers>
    <_>
      <internalNodes>
        0 -1 1130 -225 -1 -33554433 -8193 -1 -1 -1 -1</internalNodes>
      <leafValues>
        -8.2042872905731201e-01 4.3542435765266418e-01</leafValues></_>
    <_>
      <internalNodes>
        0 -1 1578 -221 -2097161 -268437918 -1 -136316160 -67109009 -2 -1</internalNodes>
      <leafValues>
        -5.6141108274459839e-01 4.8858994245529175e-01</leafValues></_>
    <_>
      <internalNodes>
        0 -1 1316 2008610815 -1074988036 -1 -65540 -17170435 -131075
        -33603588 -1090715908</internalNodes>
      <leafValues>
        -5.1713764667510986e-01 3.9869791269302368e-01</leafValues></_>
    <_>
      <internalNodes>
        0 -1 1382 -8388609 -1611071564 805289717 -1414742020 -537624579
        -16842753 -229408 -1359153164</internalNodes>
      <leafValues>
        -5.6611102819442749e-01 3.4190410375595093e-01</leafValues></_>
    <_>
      <internalNodes>
        0 -1 1172 -2281 -9592833 -33628720 -1086882081 -209724776
        1876295677 -1290733032 556924371</internalNodes>
      <leafValues>
        -4.7268784046173096e-01 4.0901950001716614e-01</leafValues></_>
    <_>
      <internalNodes>
        0 -1 716 1006593531 -620857353 -129 2147418109 -1143177732
        -67797257 -508038 -30245002</internalNodes>
      <leafValues>
        -4.3234774470329285e-01 3.9268827438354492e-01</leafValues></_>
    <_>
      <internalNodes>
        0 -1 849 2103369647 2099787444 -2167692 2143256504 -573288452
        226295164 2096918524 1412923382</internalNodes>
      <leafValues>
        -5.1294332742691040e-01 3.5089844465255737e-01</leafValues></_>
    <_>
      <internalNodes>
        0 -1 467 114812135 -589367330 -1367547908 2145254980 -33947658
        -539165700 -269156386 2111139834</internalNodes>
      <leafValues>
        -4.6475154161453247e-01 3.5324758291244507e-01</leafValues></_>
    <_>
      <internalNodes>
        0 -1 146 -1359024401 -1431918620 -285278538 -285283594
        2106318711 1425996663 -318834724 -185073673</internalNodes>
      <leafValues>
        -5.9679257869720459e-01 2.7224361896514893e-01</leafValues></_>
    <_>
      <internalNodes>
        0 -1 212 572697216 1590202238 -67191875 368922479 -1124622626
        -69698 2113761020 1029930479</internalNodes>
      <leafValues>
        -5.9503453969955444e-01 2.3532035946846008e-01</leafValues></_></weakClassifiers></stage2>
</opencv_storage>
