<?xml version="1.0"?>
<opencv_storage>
<stage3>
  <maxWeakCount>38</maxWeakCount>
  <stageThreshold>-1.8728867769241333e+00</stageThreshold>
  <weakClassifiers>
    <_>
      <internalNodes>
        0 -1 1130 -33554601 -2105889 -572534305 -538970657 -67503415
        -67132161 -620757057 -17409</internalNodes>
      <leafValues>
        -8.1318336725234985e-01 -1.0575138777494431e-01</leafValues></_>
    <_>
      <internalNodes>
        0 -1 195 -34636329 -10793473 -558478855 -33577505 -395950469
        -4630930 -604800175 -9224365</internalNodes>
      <leafValues>
        -5.7379543781280518e-01 2.3871061205863953e-01</leafValues></_>
    <_>
      <internalNodes>
        0 -1 962 -4194405 -549858308 1067490296 -1073907990 1243106268
        425540508 1067907866 892567550</internalNodes>
      <leafValues>
        -4.4910079240798950e-01 3.1051838397979736e-01</leafValues></_>
    <_>
      <internalNodes>
        0 -1 55 -825561349 -2031178072 1549402462 435621856 -894667265
        -427146 -860469858 2112831334</internalNodes>
      <leafValues>
        -4.6512264013290405e-01 2.7244266867637634e-01</leafValues></_>
    <_>
      <internalNodes>
        0 -1 507 2129649339 534708004 2097086452 2146795156 -545464834
        258408446 -21069845 368574462</internalNodes>
      <leafValues>
        -2.9111689329147339e-01 3.9526912569999695e-01</leafValues></_>
    <_>
      <internalNodes>
        0 -1 1345 -33573760 1060589773 -1933677828 1067186596 -53018496
        2071853476 547634702 268434383</internalNodes>
      <leafValues>
        -4.0649387240409851e-01 2.8199511766433716e-01</leafValues></_>
    <_>
      <internalNodes>
        0 -1 1361 -15133231 2131883932 699070888 -1349651500 2036263064
        794679803 1005876094 133660031</internalNodes>
      <leafValues>
        -3.3831736445426941e-01 3.1105113029479980e-01</leafValues></_>
    <_>
      <internalNodes>
        0 -1 703 -44105809 2001748934 -983911522 -73452 -37462064
        1576038642 -286106288 2012737530</internalNodes>
      <leafValues>
        -3.3661505579948425e-01 3.0387827754020691e-01</leafValues></_>
    <_>
      <internalNodes>
        0 -1 90 -471077245 -456208668 -913091584 -239172744 1302055631
        -313014620 -1601722414 1355867620</internalNodes>
      <leafValues>
        -4.3590599298477173e-01 2.2983041405677795e-01</leafValues></_>
    <_>
      <internalNodes>
        0 -1 621 1339800639 -1611209028 -35729860 991909768 2040295908
        1052750000 -1083434148 1995931515</internalNodes>
      <leafValues>
        -3.1864067912101746e-01 3.1571859121322632e-01</leafValues></_>
    <_>
      <internalNodes>
        0 -1 420 -2010998624 -559273960 -1120249065 -574668176
        1664598009 -1146506586 468902910 -274095775</internalNodes>
      <leafValues>
        -3.2729867100715637e-01 3.0191287398338318e-01</leafValues></_>
    <_>
      <internalNodes>
        0 -1 176 1843304697 -1225361411 -781062017 -1080510474 -94971668
        1526550861 -338416708 486560276</internalNodes>
      <leafValues>
        -5.8093440532684326e-01 1.6108122467994690e-01</leafValues></_>
    <_>
      <internalNodes>
        0 -1 976 1606275051 823456692 -1050481064 -1145652292 1453355960
        -1650949991 -100785284 754810871</internalNodes>
      <leafValues>
        -3.9523094892501831e-01 2.4519044160842896e-01</leafValues></_>
    <_>
      <internalNodes>
        0 -1 1302 -1260520151 -1349598224 -115387403 775703412 -70241924
        -71736581 -34049164 -285458956</internalNodes>
      <leafValues>
        -5.8653336763381958e-01 1.5963625907897949e-01</leafValues></_>
    <_>
      <internalNodes>
        0 -1 1534 -160446201 -19631 -1978713345 2141033365 -1421047232
        -62171247 2053962952 -365887528</internalNodes>
      <leafValues>
        -3.4058043360710144e-01 2.6879531145095825e-01</leafValues></_>
    <_>
      <internalNodes>
        0 -1 784 -205577662 918461871 -1635492124 802214216 2090019804
        1069179225 -121537332 1156050897</internalNodes>
      <leafValues>
        -4.3397784233093262e-01 2.1110080182552338e-01</leafValues></_>
    <_>
      <internalNodes>
        0 -1 1180 349638563 1869676533 -1073840140 -4194356 2094456804
        1993727997 -1360601094 924810967</internalNodes>
      <leafValues>
        -2.6753383874893188e-01 3.4333845973014832e-01</leafValues></_>
    <_>
      <internalNodes>
        0 -1 548 2142503423 -1692568681 1919580143 -1615277185
        1650595860 1064836137 2068339516 -76382454</internalNodes>
      <leafValues>
        -3.3820095658302307e-01 2.6043292880058289e-01</leafValues></_>
    <_>
      <internalNodes>
        0 -1 711 2122315633 2063029206 -490156832 2147412446 -72802074
        303280 2041199820 1425276659</internalNodes>
      <leafValues>
        -4.0940830111503601e-01 2.0822852849960327e-01</leafValues></_>
    <_>
      <internalNodes>
        0 -1 1448 -546440943 2142763741 -116597960 -1075987016
        1599789628 -73483427 -222627650 116908990</internalNodes>
      <leafValues>
        -2.8973573446273804e-01 2.9118657112121582e-01</leafValues></_>
    <_>
      <internalNodes>
        0 -1 1054 427698111 -1610819652 -1544754689 670891388 -134709900
        -1143395333 -337879428 -524503052</internalNodes>
      <leafValues>
        -4.2811706662178040e-01 2.0277228951454163e-01</leafValues></_>
    <_>
      <internalNodes>
        0 -1 358 763288575 456491004 -17793154 -71729424 -848013613
        1556021118 -1631691046 2138005470</internalNodes>
      <leafValues>
        -2.4264490604400635e-01 3.4560254216194153e-01</leafValues></_>
    <_>
      <internalNodes>
        0 -1 1599 -1301350435 162945559 -1861584172 108295132 297777837
        -1360506645 1956886932 -1936934419</internalNodes>
      <leafValues>
        -4.3836727738380432e-01 1.9448007643222809e-01</leafValues></_>
    <_>
      <internalNodes>
        0 -1 950 374695857 437703547 -921254244 -12654712 1230981781
        1300499118 -18972692 1693940598</internalNodes>
      <leafValues>
        -4.0182992815971375e-01 2.0258755981922150e-01</leafValues></_>
    <_>
      <internalNodes>
        0 -1 592 1938796539 2135224174 1554309073 480759775 -1115902538
        -2162691 754810659 2133852155</internalNodes>
      <leafValues>
        -2.0002250373363495e-01 4.5362055301666260e-01</leafValues></_>
    <_>
      <internalNodes>
        0 -1 1385 2006399975 -1874079020 -1742530092 218778832
        2038331386 1752619953 -89331982 1023803350</internalNodes>
      <leafValues>
        -3.2253763079643250e-01 2.6453560590744019e-01</leafValues></_>
    <_>
      <internalNodes>
        0 -1 1572 -33570544 1006203642 -784874096 -11812912 -167863376
        -1182641443 576068186 -1083876426</internalNodes>
      <leafValues>
        -3.2801076769828796e-01 2.6625627279281616e-01</leafValues></_>
    <_>
      <internalNodes>
        0 -1 1063 -547486061 2134232308 -544682960 -274816031 1534261652
        1532553881 1023343448 666892924</internalNodes>
      <leafValues>
        -3.7835305929183960e-01 2.3045116662979126e-01</leafValues></_>
    <_>
      <internalNodes>
        0 -1 651 -1944866263 1060034803 1486225388 -1443563088
        1262050473 1526250735 1270831837 -168297986</internalNodes>
      <leafValues>
        -3.1208086013793945e-01 2.6813223958015442e-01</leafValues></_>
    <_>
      <internalNodes>
        0 -1 979 595434879 735319028 -802950690 -1367964964 -903328932
        -203325217 1543166548 2062840564</internalNodes>
      <leafValues>
        -6.5356117486953735e-01 1.2285759299993515e-01</leafValues></_>
    <_>
      <internalNodes>
        0 -1 300 -1095504709 520027868 -319021327 1874296415 -2162818
        -2326532 -4194305 1332699027</internalNodes>
      <leafValues>
        -2.1704773604869843e-01 4.1013106703758240e-01</leafValues></_>
    <_>
      <internalNodes>
        0 -1 1000 -2144335568 -12025753 490828287 -1745079304
        -1416185094 -1079312247 240138942 29113076</internalNodes>
      <leafValues>
        -4.7176143527030945e-01 1.8979594111442566e-01</leafValues></_>
    <_>
      <internalNodes>
        0 -1 537 2113350399 571371866 -1739002220 2147469018 -611414088
        134742420 -15191474 142473079</internalNodes>
      <leafValues>
        -3.0171728134155273e-01 2.7892711758613586e-01</leafValues></_>
    <_>
      <internalNodes>
        0 -1 516 -1630026021 -1076725858 272783452 -272695994
        -1073587524 2133619354 -291865122 1560108029</internalNodes>
      <leafValues>
        -3.1712526082992554e-01 2.5439661741256714e-01</leafValues></_>
    <_>
      <internalNodes>
        0 -1 95 -709973329 1072230138 -1090588803 2039431166 1198361853
        484376575 -134361094 1450573678</internalNodes>
      <leafValues>
        -2.4100561439990997e-01 3.2912769913673401e-01</leafValues></_>
    <_>
      <internalNodes>
        0 -1 1593 2086600560 61518328 1733020896 -372879114 1934094084
        1646588389 -742399056 -1001984260</internalNodes>
      <leafValues>
        -4.5703017711639404e-01 1.8132889270782471e-01</leafValues></_>
    <_>
      <internalNodes>
        0 -1 1284 2122067697 575790591 -103026189 -426055796 -231785092
        -138739281 1785261012 -423691276</internalNodes>
      <leafValues>
        -4.2928192019462585e-01 1.8217541277408600e-01</leafValues></_>
    <_>
      <internalNodes>
        0 -1 1475 -136331277 2092750726 -1290938160 -1494624676
        2033747941 543689136 -68424340 1979115255</internalNodes>
      <leafValues>
        -3.3585751056671143e-01 2.2784081101417542e-01</leafValues></_></weakClassifiers></stage3>
</opencv_storage>
