<?xml version="1.0"?>
<opencv_storage>
<stage1>
  <maxWeakCount>23</maxWeakCount>
  <stageThreshold>-1.8366011381149292e+00</stageThreshold>
  <weakClassifiers>
    <_>
      <internalNodes>
        0 -1 1010 -2281 -1 -1 -1 -1 -1 -1 -1025</internalNodes>
      <leafValues>
        -8.2926106452941895e-01 3.4539648890495300e-01</leafValues></_>
    <_>
      <internalNodes>
        0 -1 196 -32897 -1 -609026305 -8716289 -285253767 -8683649
        -67928203 -9207945</internalNodes>
      <leafValues>
        -6.4123618602752686e-01 2.8748887777328491e-01</leafValues></_>
    <_>
      <internalNodes>
        0 -1 1134 -101190272 -1 2078081012 -33686787 978843348
        -151523329 1565851580 -545915905</internalNodes>
      <leafValues>
        -5.8676236867904663e-01 3.0717983841896057e-01</leafValues></_>
    <_>
      <internalNodes>
        0 -1 1318 939393015 -1107509508 1056964607 -1073807364
        -1073881091 -33751041 -33685507 -1128498692</internalNodes>
      <leafValues>
        -4.9975243210792542e-01 3.5410317778587341e-01</leafValues></_>
    <_>
      <internalNodes>
        0 -1 160 -287346689 1818513406 -974323976 -65928 -553746689
        1316290388 -17502514 1157095290</internalNodes>
      <leafValues>
        -4.5451766252517700e-01 3.8027530908584595e-01</leafValues></_>
    <_>
      <internalNodes>
        0 -1 11 -894767377 -1074929938 -168835426 2012719651 -402808853
        -4202498 -1343238181 -301998641</internalNodes>
      <leafValues>
        -3.6729165911674500e-01 4.6391460299491882e-01</leafValues></_>
    <_>
      <internalNodes>
        0 -1 1382 -1082425345 268106676 1876868863 784250876 -1610776579
        -69633 -16875676 -1359153420</internalNodes>
      <leafValues>
        -5.4443198442459106e-01 2.9191982746124268e-01</leafValues></_>
    <_>
      <internalNodes>
        0 -1 849 2113920933 1562918580 -50402204 -37847112 -573288452
        226295164 2130477052 1882685430</internalNodes>
      <leafValues>
        -5.4615390300750732e-01 2.6694655418395996e-01</leafValues></_>
    <_>
      <internalNodes>
        0 -1 467 113714407 -570524706 -1904420866 -1075970492 -570557442
        -67317762 -337772578 492154874</internalNodes>
      <leafValues>
        -4.3087813258171082e-01 3.6104223132133484e-01</leafValues></_>
    <_>
      <internalNodes>
        0 -1 712 503283415 234256381 -1073840145 774963189 -538683856
        2146956029 -1216463504 -1167032460</internalNodes>
      <leafValues>
        -6.6826689243316650e-01 2.0074869692325592e-01</leafValues></_>
    <_>
      <internalNodes>
        0 -1 129 -287375361 -1078003722 450809574 -720908 2074894079
        1450604920 -111489 1987530583</internalNodes>
      <leafValues>
        -4.1459491848945618e-01 3.3506679534912109e-01</leafValues></_>
    <_>
      <internalNodes>
        0 -1 512 -1497383937 -1367410694 -20032914 -62980122 -554407052
        1870100467 -85033404 -88805456</internalNodes>
      <leafValues>
        -5.9412145614624023e-01 2.2290971875190735e-01</leafValues></_>
    <_>
      <internalNodes>
        0 -1 1218 -1157628079 1054733809 -134742440 503119600 1576073020
        1208876404 1877933806 1706556950</internalNodes>
      <leafValues>
        -3.8517424464225769e-01 3.3806273341178894e-01</leafValues></_>
    <_>
      <internalNodes>
        0 -1 405 -1037384429 -1679515414 -8454667 -571226782 -1369444358
        -1224769537 -806889985 -1531715081</internalNodes>
      <leafValues>
        -2.9881784319877625e-01 4.3607267737388611e-01</leafValues></_>
    <_>
      <internalNodes>
        0 -1 1588 -38011085 -1223164250 -486609104 -1164050964
        2147481344 -659719 -558891068 -520098057</internalNodes>
      <leafValues>
        -3.7313628196716309e-01 3.5310938954353333e-01</leafValues></_>
    <_>
      <internalNodes>
        0 -1 801 2013218971 -1628769282 -4403388 -1073778836 2003066716
        2140981756 -302579778 1039490878</internalNodes>
      <leafValues>
        -3.8194081187248230e-01 3.3673867583274841e-01</leafValues></_>
    <_>
      <internalNodes>
        0 -1 1084 -587207233 1056766845 -136513665 772729774 -335773963
        -68437781 -1174603404 -290160656</internalNodes>
      <leafValues>
        -5.2311801910400391e-01 2.4416656792163849e-01</leafValues></_>
    <_>
      <internalNodes>
        0 -1 387 -403787789 -824398897 -832906016 -538649140 1943818206
        1090402494 -34474200 -185204746</internalNodes>
      <leafValues>
        -4.4015520811080933e-01 2.8456005454063416e-01</leafValues></_>
    <_>
      <internalNodes>
        0 -1 1479 766427133 779009662 -65540 754909052 -1879293985
        -1912733697 1979479551 -1930430481</internalNodes>
      <leafValues>
        -3.4837880730628967e-01 3.8013863563537598e-01</leafValues></_>
    <_>
      <internalNodes>
        0 -1 60 -1427271938 -51591448 -302190864 225234686 1654471514
        1573190616 2108479722 1296260447</internalNodes>
      <leafValues>
        -5.3904336690902710e-01 2.4228897690773010e-01</leafValues></_>
    <_>
      <internalNodes>
        0 -1 1530 1929189384 -637195 988728878 397866866 -646147512
        -87172437 1383398380 821348208</internalNodes>
      <leafValues>
        -5.2763324975967407e-01 2.2772189974784851e-01</leafValues></_>
    <_>
      <internalNodes>
        0 -1 960 188743275 318024372 -614795172 -1103185428 2073885420
        1006161583 -84239388 934805503</internalNodes>
      <leafValues>
        -3.4542465209960938e-01 3.6048161983489990e-01</leafValues></_>
    <_>
      <internalNodes>
        0 -1 1587 -135424 -1612794896 -1748577728 -1076045348 2067749884
        -459570 -572608804 -1913065988</internalNodes>
      <leafValues>
        -5.5005812644958496e-01 2.3380544781684875e-01</leafValues></_></weakClassifiers></stage1>
</opencv_storage>
