<?xml version="1.0"?>
<opencv_storage>
<stage4>
  <maxWeakCount>26</maxWeakCount>
  <stageThreshold>-2.0181324481964111e+00</stageThreshold>
  <weakClassifiers>
    <_>
      <internalNodes>
        0 -1 197 -35651585 -134548513 -115829249 -788481 -71631877
        -21610577 -10223873 -9207937</internalNodes>
      <leafValues>
        -8.0146229267120361e-01 9.7496002912521362e-02</leafValues></_>
    <_>
      <internalNodes>
        0 -1 751 1459933392 -13370911 -1543410175 -168823579 1559483307
        2079568095 546788859 670564223</internalNodes>
      <leafValues>
        -6.1687105894088745e-01 2.0321400463581085e-01</leafValues></_>
    <_>
      <internalNodes>
        0 -1 496 1608500463 -537068930 -928712900 -134361508 -919981154
        -577719652 -386073606 1427494334</internalNodes>
      <leafValues>
        -4.8056149482727051e-01 3.0118086934089661e-01</leafValues></_>
    <_>
      <internalNodes>
        0 -1 954 1931211699 -1076510476 1435795268 -1073873796
        -362943496 -1152022340 825781226 1427505022</internalNodes>
      <leafValues>
        -4.4997406005859375e-01 3.1142565608024597e-01</leafValues></_>
    <_>
      <internalNodes>
        0 -1 1211 -710543971 -1089089324 -598684768 -1667771776
        -1081934852 693469972 -352329730 2134900594</internalNodes>
      <leafValues>
        -3.0154153704643250e-01 3.8420146703720093e-01</leafValues></_>
    <_>
      <internalNodes>
        0 -1 144 -288166145 -10685958 -92083668 -4669706 2025617659
        1553746418 1837384910 1886608971</internalNodes>
      <leafValues>
        -3.5458952188491821e-01 3.1681582331657410e-01</leafValues></_>
    <_>
      <internalNodes>
        0 -1 1599 -1297612833 -1380286793 -1115750732 -1526958084
        -1778729281 -1359020546 -20481 -1997554257</internalNodes>
      <leafValues>
        -2.6560378074645996e-01 3.9879018068313599e-01</leafValues></_>
    <_>
      <internalNodes>
        0 -1 1588 -39060685 909637733 -891891712 -1970743876 2107495232
        -223000395 -7430460 -1587561817</internalNodes>
      <leafValues>
        -3.7186777591705322e-01 2.6845327019691467e-01</leafValues></_>
    <_>
      <internalNodes>
        0 -1 565 -2111136461 -1759596072 912235476 1295308282
        -1157366853 -1094513699 -81470465 -941709147</internalNodes>
      <leafValues>
        -3.4307944774627686e-01 2.8288900852203369e-01</leafValues></_>
    <_>
      <internalNodes>
        0 -1 863 -1107821697 -606841872 -2007628386 -1249900 1513643472
        513042879 1072065396 1071607730</internalNodes>
      <leafValues>
        -3.3946356177330017e-01 2.9146164655685425e-01</leafValues></_>
    <_>
      <internalNodes>
        0 -1 839 -256624227 520409334 415252576 2108421300 467411452
        6084964 2129854440 900987870</internalNodes>
      <leafValues>
        -3.8715630769729614e-01 2.4877247214317322e-01</leafValues></_>
    <_>
      <internalNodes>
        0 -1 621 1323027771 -1627983944 2112671612 -1120043072
        2113729773 1052770301 -1107550626 855605115</internalNodes>
      <leafValues>
        -2.8721216320991516e-01 3.2203632593154907e-01</leafValues></_>
    <_>
      <internalNodes>
        0 -1 176 2145033403 -1208041507 -708455331 -2558018 -201307988
        -1730846395 -470275284 2132833045</internalNodes>
      <leafValues>
        -4.7941085696220398e-01 1.8497365713119507e-01</leafValues></_>
    <_>
      <internalNodes>
        0 -1 1385 1606335295 -666185356 269611476 -552706320 1232795504
        1769443493 -1124276486 765721598</internalNodes>
      <leafValues>
        -3.0014607310295105e-01 3.0623409152030945e-01</leafValues></_>
    <_>
      <internalNodes>
        0 -1 928 751298707 2117664492 -65540 -1073877004 1610612160
        -1657503747 -285278274 1056931823</internalNodes>
      <leafValues>
        -2.6930567622184753e-01 3.6373326182365417e-01</leafValues></_>
    <_>
      <internalNodes>
        0 -1 256 1032121018 -579937586 -736345256 234216020 -607505954
        2052686472 1787595662 494231402</internalNodes>
      <leafValues>
        -3.9704701304435730e-01 2.3742049932479858e-01</leafValues></_>
    <_>
      <internalNodes>
        0 -1 976 1337971435 423412476 1631734393 591301548 1511680988
        534753977 -36018212 652049271</internalNodes>
      <leafValues>
        -3.8172575831413269e-01 2.5059944391250610e-01</leafValues></_>
    <_>
      <internalNodes>
        0 -1 1382 -1225001133 -1812671852 96973557 -1220742680 464547708
        -84754261 -105250976 -1360199684</internalNodes>
      <leafValues>
        -4.5131909847259521e-01 2.0175838470458984e-01</leafValues></_>
    <_>
      <internalNodes>
        0 -1 1433 2101313177 -34341059 1073725352 771522551 -50397560
        -268435586 745352382 804782078</internalNodes>
      <leafValues>
        -2.6823568344116211e-01 3.4151151776313782e-01</leafValues></_>
    <_>
      <internalNodes>
        0 -1 1485 -775290800 -2248353 -2051219619 -579022068 -1169126160
        -1097244461 1953020649 -93521167</internalNodes>
      <leafValues>
        -3.1101140379905701e-01 2.7468344569206238e-01</leafValues></_>
    <_>
      <internalNodes>
        0 -1 170 1411018491 -1361161476 -1005537128 -135987210
        -125081938 -832546764 -1093248150 1148539730</internalNodes>
      <leafValues>
        -4.7569429874420166e-01 1.7599084973335266e-01</leafValues></_>
    <_>
      <internalNodes>
        0 -1 614 2139035115 -4288531 1455742621 -805478913 2136989682
        -11010059 252501930 1533009806</internalNodes>
      <leafValues>
        -2.1524633467197418e-01 3.9078798890113831e-01</leafValues></_>
    <_>
      <internalNodes>
        0 -1 1296 2113237173 -1762070191 -209060868 -1526803980
        1790786420 1939464365 2042658420 888437620</internalNodes>
      <leafValues>
        -6.8416851758956909e-01 1.2838365137577057e-01</leafValues></_>
    <_>
      <internalNodes>
        0 -1 1305 1808749961 470861904 1360162908 -1640217424 1535007676
        2118671292 -119608388 634910423</internalNodes>
      <leafValues>
        -3.3962407708168030e-01 2.5326278805732727e-01</leafValues></_>
    <_>
      <internalNodes>
        0 -1 1445 1976949465 1043920780 -777039400 -1211376356 -85132708
        -539555169 -72062724 318725458</internalNodes>
      <leafValues>
        -3.1272149085998535e-01 2.8029125928878784e-01</leafValues></_>
    <_>
      <internalNodes>
        0 -1 1306 529602423 117625116 -1311270938 2117656024 901608268
        -206741063 1533702768 -1094927376</internalNodes>
      <leafValues>
        -5.7575350999832153e-01 1.4914175868034363e-01</leafValues></_></weakClassifiers></stage4>
</opencv_storage>
